{"[PAD]": 0, "[BOS]": 1, "[EOS]": 2, "[UNK]": 3, "!": 4, "#": 5, "$": 6, "%": 7, "&": 8, "(": 9, ")": 10, "*": 11, "+": 12, ",": 13, "-": 14, ".": 15, "/": 16, "0": 17, "1": 18, "2": 19, "3": 20, "4": 21, "5": 22, "6": 23, "7": 24, "8": 25, "9": 26, ":": 27, ";": 28, "?": 29, "@": 30, "[": 31, "\\": 32, "]": 33, "_": 34, "a": 35, "b": 36, "c": 37, "d": 38, "e": 39, "f": 40, "g": 41, "h": 42, "i": 43, "j": 44, "k": 45, "l": 46, "m": 47, "n": 48, "o": 49, "p": 50, "q": 51, "r": 52, "s": 53, "t": 54, "u": 55, "v": 56, "w": 57, "x": 58, "y": 59, "z": 60, "{": 61, "|": 62, "}": 63, "\u00a3": 64, "\u00a4": 65, "\u00a5": 66, "\u00ac": 67, "\u00b6": 68, "\u00bc": 69, "\u00c2": 70, "\u00c3": 71, "\u00e2": 72, "\u0120": 73, "\u0124": 74, "\u0141": 75, "en": 76, "er": 77, "in": 78, "\u0120a": 79, "\u0120t": 80, "\u0120d": 81, "ch": 82, "\u0120s": 83, "on": 84, "es": 85, "\u0120th": 86, "un": 87, "\u0120w": 88, "it": 89, "is": 90, "\u0120b": 91, "at": 92, "\u0120the": 93, "re": 94, "ie": 95, "an": 96, "\u0120m": 97, "or": 98, "\u0120f": 99, "\u0120e": 100, "\u0120p": 101, "\u0120in": 102, "\u0120o": 103, "\u0120c": 104, "al": 105, "ion": 106, "ar": 107, "\u0120an": 108, "\u0120h": 109, "ich": 110, "ro": 111, "te": 112, "\u0120g": 113, "\u0120un": 114, "\u0120v": 115, "le": 116, "as": 117, "\u0120n": 118, "ent": 119, "us": 120, "\u00c3\u00bc": 121, "\u0120of": 122, "\u0120die": 123, "ung": 124, "ur": 125, "\u00c3\u00a4": 126, "ing": 127, "\u0120der": 128, "\u0120to": 129, "\u0120be": 130, "\u0120and": 131, "ll": 132, "om": 133, "\u0120z": 134, "ig": 135, "\u0120k": 136, "\u0120und": 137, "ed": 138, "\u0120i": 139, "ic": 140, "st": 141, "\u0120l": 142, "\u0120ein": 143, "\u0120re": 144, "em": 145, "el": 146, "ra": 147, "\u0120is": 148, "ter": 149, "ir": 150, "et": 151, "ation": 152, "ut": 153, "il": 154, "ten": 155, "eit": 156, "ol": 157, "der": 158, "\u0120st": 159, "um": 160, "\u0120ver": 161, "den": 162, "ge": 163, "\u0120r": 164, "ct": 165, "sch": 166, "am": 167, "ies": 168, "\u0120au": 169, "\u0120for": 170, "hr": 171, "ber": 172, "\u0120pro": 173, "iv": 174, "ul": 175, "\u00c3\u00b6": 176, "de": 177, "lich": 178, "\u0120eu": 179, "\u0120das": 180, "isch": 181, "\u00c3\u00bcr": 182, "ab": 183, "\u0120zu": 184, "omm": 185, "\u0120er": 186, "\u0120on": 187, "gen": 188, "ier": 189, "icht": 190, "im": 191, "\u0120den": 192, "ot": 193, "ess": 194, "est": 195, "\u0120im": 196, "\u0120al": 197, "pe": 198, "\u0120wir": 199, "and": 200, "\u0120se": 201, "\u0120j": 202, "\u0120we": 203, "\u0120that": 204, "\u0120mit": 205, "os": 206, "ly": 207, "ce": 208, "\u0120so": 209, "id": 210, "\u0120con": 211, "\u0120euro": 212, "\u0120wh": 213, "ere": 214, "\u0120auf": 215, "\u0120von": 216, "ach": 217, "\u0120it": 218, "\u00c3\u0141": 219, "\u0120de": 220, "ort": 221, "ver": 222, "ff": 223, "\u0120ge": 224, "\u0120f\u00c3\u00bcr": 225, "iss": 226, "kt": 227, "\u0120y": 228, "\u0120as": 229, "ith": 230, "ft": 231, "\u0120des": 232, "\u0120co": 233, "\u0120ne": 234, "\u0120with": 235, "\u0120dies": 236, "ow": 237, "ill": 238, "men": 239, "\u0120ist": 240, "\u0120aus": 241, "\u0120pr": 242, "\u0120ha": 243, "\u0120sch": 244, "\u0120le": 245, "\u0120are": 246, "ers": 247, "ein": 248, "\u0120(": 249, "ay": 250, "\u0120sie": 251, "\u01202": 252, "ve": 253, "\u01201": 254, "ate": 255, "\u0120this": 256, "qu": 257, "ungen": 258, "\u0120par": 259, "ind": 260, "00": 261, "ment": 262, "ck": 263, "tr": 264, "\u00c3\u00bcber": 265, "up": 266, "ischen": 267, "ik": 268, "\u0120ex": 269, "\u0120yo": 270, "\u0120en": 271, "op": 272, "ts": 273, "\u0120ab": 274, "\u0120wer": 275, "th": 276, "ien": 277, "la": 278, "\u00c3\u00a4n": 279, "\u0120eine": 280, "ission": 281, "\u0120ma": 282, "\u0120dem": 283, "\u0120vor": 284, "ib": 285, "\u0120comm": 286, "ity": 287, "\u0120als": 288, "\u0120or": 289, "ive": 290, "ial": 291, "\u0120mo": 292, "ste": 293, "ad": 294, "\u0120ent": 295, "\u0120all": 296, "\u0120es": 297, "ah": 298, "\u0120\u00c3\u00bcber": 299, "nen": 300, "\u0120sich": 301, "und": 302, "\u0120ch": 303, "port": 304, "\u0120um": 305, "ist": 306, "\u0120werden": 307, "\u0120by": 308, "\u0120not": 309, "ant": 310, "ne": 311, "\u0120me": 312, "for": 313, "\u0120nicht": 314, "\u0120at": 315, "ub": 316, "end": 317, "\u0120com": 318, "ungs": 319, "if": 320, "ag": 321, "\u0120will": 322, "ug": 323, "uch": 324, "we": 325, "rom": 326, "ann": 327, "igen": 328, "\u0120ar": 329, "\u0120sh": 330, "\u0120europ": 331, "\u0120dass": 332, "\u0120-": 333, "ust": 334, "\u0120ho": 335, "ions": 336, "\u0120unter": 337, "\u0120reg": 338, "\u0120europe": 339, "\u0120inter": 340, "tel": 341, "igh": 342, "\u0120have": 343, "ben": 344, "ass": 345, "ure": 346, "pl": 347, "uld": 348, "scha": 349, "ern": 350, "ted": 351, "ak": 352, "\u0120ich": 353, "\u0120us": 354, "all": 355, "ran": 356, "lie": 357, "ze": 358, "iel": 359, "du": 360, "\u0120you": 361, "pr": 362, "\u0120da": 363, "ahr": 364, "\u0120te": 365, "\u0120uns": 366, "\u0120was": 367, "\u0120auch": 368, "hal": 369, "\u0120which": 370, "ain": 371, "\u0120from": 372, "\u0120res": 373, "\u0120komm": 374, "hen": 375, "gr": 376, "\u0120ges": 377, "\u0120wo": 378, "ang": 379, "\u0120he": 380, "\u0120bes": 381, "uss": 382, "ard": 383, "\u0120wird": 384, "\u0120wor": 385, "au": 386, "\u0120do": 387, "schaft": 388, "\u0120her": 389, "\u0120pol": 390, "ip": 391, "\u0120sind": 392, "\u0120ber": 393, "me": 394, "ische": 395, "\u0120am": 396, "\u0120has": 397, "ine": 398, "\u0120ad": 399, "\u0120european": 400, "\u0120wie": 401, "\u0120no": 402, "\u0120sp": 403, "form": 404, "iz": 405, "\u0120gr": 406, "ue": 407, "og": 408, "\u0120coun": 409, "\u0120comp": 410, "\u0120europ\u00c3\u00a4": 411, "\u0120zur": 412, "ens": 413, "ap": 414, "\u0120man": 415, "\u0120nach": 416, "llen": 417, "ations": 418, "tz": 419, "\u0120bei": 420, "\u0120dur": 421, "ick": 422, "ss": 423, "od": 424, "aus": 425, "..": 426, "\u0120di": 427, "be": 428, "etz": 429, "ational": 430, "\u0120hab": 431, "pro": 432, "keit": 433, "\u0120fin": 434, "\u0120part": 435, "cc": 436, "\u0120ro": 437, "\u0120hat": 438, "\u00c3\u00b6n": 439, "beit": 440, "\u0120ih": 441, "ident": 442, "\u0120op": 443, "\u0120mar": 444, "ud": 445, "\u0120commission": 446, "ges": 447, "age": 448, "\u0120can": 449, "ise": 450, "ige": 451, "able": 452, "her": 453, "ia": 454, "lichen": 455, "ert": 456, "ult": 457, "\u0120ste": 458, "\u0120qu": 459, "ction": 460, "aten": 461, "\u0120ap": 462, "heit": 463, "ast": 464, "\u0120200": 465, "\u0120our": 466, "ition": 467, "\u0120str": 468, "eren": 469, "\u0120also": 470, "enn": 471, "rit": 472, "\u0120kon": 473, "\u0120gro": 474, "se": 475, "ke": 476, "ates": 477, "\u00c3\u00a4r": 478, "\u0120durch": 479, "f\u00c3\u00bc": 480, "ament": 481, "\u0120its": 482, "\u0120ag": 483, "\u0120oder": 484, "\u00c3\u00a4t": 485, "\u0120k\u00c3\u00b6n": 486, "ical": 487, "vel": 488, "\u0120fo": 489, "hmen": 490, "ect": 491, "ok": 492, "dern": 493, "\u0120einer": 494, "\u0120fra": 495, "ated": 496, "mer": 497, "ember": 498, "io": 499, "sp": 500, "ement": 501, "ice": 502, "\u0120ra": 503, "\u0120haben": 504, "\u0120gen": 505, "\u0120there": 506, "\u0120tra": 507, "\u0120pl": 508, "\u0120kommission": 509, "ord": 510, "\u0120dis": 511, "\u0120go": 512, "are": 513, "\u0120union": 514, "elt": 515, "\u0120fa": 516, "\u0120ser": 517, "\u0120bet": 518, "cial": 519, "\u0120dar": 520, "con": 521, "\u0120diese": 522, "\u0120intern": 523, "ign": 524, "oc": 525, "\u00c3\u00bcn": 526, "\u00c3\u00b6r": 527, "\u0120cont": 528, "fen": 529, "\u0120pres": 530, "ome": 531, "\u0120parl": 532, "hl": 533, "ance": 534, "art": 535, "\u0120produ": 536, "\u0120but": 537, "ish": 538, "sten": 539, "\u0120ihr": 540, "\u0120einen": 541, "ger": 542, "ms": 543, "ieren": 544, "\u0120sein": 545, "liche": 546, "cl": 547, "\u0120ind": 548, "anz": 549, "\u0120m\u00c3\u00b6": 550, "\u0120spe": 551, "ther": 552, "ary": 553, "yste": 554, "gra": 555, "out": 556, "ht": 557, "\u0120fre": 558, "he": 559, "tet": 560, "iert": 561, "\u0120pre": 562, "\u0120war": 563, "\u0120wur": 564, "\u0120more": 565, "\u0120hotel": 566, "cht": 567, "pos": 568, "\u0120new": 569, "ear": 570, "chen": 571, "ight": 572, "ks": 573, "gt": 574, "our": 575, "\u0120acc": 576, "\u0120member": 577, "\u0120gem": 578, "\u012019": 579, "\u0120inform": 580, "\u0120their": 581, "ore": 582, "\u0120mr": 583, "ide": 584, "\u0120ob": 585, "zu": 586, "lo": 587, "\u0120europ\u00c3\u00a4ischen": 588, "\u01203": 589, "wer": 590, "ite": 591, "chn": 592, "\u0120k\u00c3\u00b6nnen": 593, "\u0120sup": 594, "\u0120your": 595, "\u0120min": 596, "ru": 597, "\u0120per": 598, "\u0120zum": 599, "ese": 600, "\u0120sa": 601, "\u0120tran": 602, "ian": 603, "sta": 604, "gram": 605, "glie": 606, "\u0120pos": 607, "\u0120would": 608, "\u0120po": 609, "\u0120cl": 610, "\u0120inst": 611, "\u0120em": 612, "utz": 613, "\u0120ihre": 614, "\u00c3\u00a4s": 615, "ase": 616, "\u0120zw": 617, "ile": 618, "\u0120zus": 619, "cil": 620, "\u0120been": 621, "\u0120verb": 622, "\u0120alle": 623, "ime": 624, "\u0120wenn": 625, "\u0120herr": 626, "\u0120polit": 627, "\u0120weit": 628, "gan": 629, "che": 630, "\u0120off": 631, "\u0120sho": 632, "imm": 633, "reat": 634, "\u00c3\u00bcss": 635, "land": 636, "glich": 637, "nah": 638, "\u0120fr": 639, "mit": 640, "ied": 641, "\u0120dieser": 642, "ierung": 643, "wo": 644, "\u0120einem": 645, "\u0120up": 646, "to": 647, "ities": 648, "ute": 649, "ild": 650, "tra": 651, "\u0120one": 652, "\u0120countr": 653, "\u0120cons": 654, "\u0120la": 655, "ank": 656, "\u0120if": 657, "fe": 658, "\u0120fe": 659, "\u0120mon": 660, "\u00c3\u00bcck": 661, "\u0120they": 662, "igkeit": 663, "\u0120should": 664, "\u0120kann": 665, "\u0120inv": 666, "ner": 667, "ong": 668, "ugh": 669, "\u00c3\u00a4hr": 670, "\u0120ger": 671, "ame": 672, "\u0120mitglie": 673, "ution": 674, "ahl": 675, "ble": 676, "\u0120hin": 677, "\u0120jahr": 678, "pt": 679, "\u0120tak": 680, "\u0120nur": 681, "ose": 682, "chte": 683, "\u0120pe": 684, "wick": 685, "\u0120mehr": 686, "\u0120br": 687, "\u0120eff": 688, "bar": 689, "\u0120arbeit": 690, "ommen": 691, "teil": 692, "ces": 693, "\u0120out": 694, "ely": 695, "\u0120dire": 696, "\u0120prov": 697, "\u0120jed": 698, "\u0120ev": 699, "ire": 700, "velop": 701, "ual": 702, "reich": 703, "\u0120work": 704, "tschaft": 705, "ple": 706, "ors": 707, "\u0120syste": 708, "fr": 709, "\u0120these": 710, "\u0120soll": 711, "\u0120develop": 712, "ubl": 713, "\u0120serv": 714, "\u0120tr": 715, "\u0120other": 716, "\u00c3\u00a4nder": 717, "\u0120rat": 718, "\u0120states": 719, "geb": 720, "\u0120sol": 721, "\u0120pers": 722, "\u0120best": 723, "ced": 724, "\u0120gegen": 725, "\u0120information": 726, "\u0120gemein": 727, "\u0120need": 728, "ings": 729, "ammen": 730, "\u0120mark": 731, "\u0120ins": 732, "ail": 733, "\u0120international": 734, "f\u00c3\u00bchr": 735, "\u0120gew": 736, "\u0120year": 737, "\u012020": 738, "\u0120aber": 739, "\u0120mitglied": 740, "ject": 741, "ister": 742, "ffen": 743, "\u0120rec": 744, "\u0120program": 745, "\u0120aut": 746, "ack": 747, "\u0120men": 748, ").": 749, "ater": 750, "\u00c3\u00a4sident": 751, "ments": 752, "\u0120hand": 753, "\u0120mein": 754, "\u0120must": 755, "\u0120fir": 756, "\u0120noch": 757, "\u0120council": 758, "arbeit": 759, "per": 760, "\u0120.": 761, "\u0120trans": 762, "ktion": 763, "\u0120da\u00c3\u0141": 764, "ike": 765, "\u0120zusammen": 766, "\u0120entwick": 767, "ld": 768, "olog": 769, "\u0120kein": 770, "\u0120proble": 771, "tern": 772, "\u0120who": 773, "cy": 774, "\u0120how": 775, "\u00c3\u00bctz": 776, "fahr": 777, "\u0120ter": 778, "ative": 779, "lin": 780, "bs": 781, "ents": 782, "ures": 783, "ans": 784, "\u0120dec": 785, "sib": 786, "leich": 787, "\u0120only": 788, "\u0120wurde": 789, "cess": 790, "ph": 791, "\u0120sub": 792, "uen": 793, "\u0120act": 794, "one": 795, "\u01204": 796, "\u00c3\u0141en": 797, "pf": 798, "nehmen": 799, "\u00c3\u00bcssen": 800, "\u0120ass": 801, "alt": 802, "entr": 803, "it\u00c3\u00a4t": 804, "\u0120bo": 805, "schen": 806, "\u01205": 807, "\u0120region": 808, "conom": 809, "\u0120bef": 810, "\u0120such": 811, "\u0120lo": 812, "staaten": 813, "\u0120sit": 814, "get": 815, "onder": 816, "\u0120national": 817, "hn": 818, "assen": 819, "ateg": 820, "\u00c3\u00a4nd": 821, "\u0120very": 822, "\u0120bis": 823, "\u0120techn": 824, "erg": 825, "\u0120vie": 826, "\u0120bec": 827, "fl": 828, "\u0120m\u00c3\u00bcssen": 829, "\u0120fl": 830, "int": 831, "\u0120any": 832, "fol": 833, "\u0120president": 834, "\u0120time": 835, "\u0120econom": 836, "ility": 837, "igt": 838, "\u0120,": 839, "\u0120besch": 840, "\u0120import": 841, "xt": 842, "ular": 843, "\u0120land": 844, "\u0120about": 845, "\u0120market": 846, "\u0120bas": 847, "\u0120dam": 848, "ious": 849, "ho": 850, "\u0120ele": 851, "ds": 852, "tell": 853, "...": 854, "ific": 855, "\u0120over": 856, "ken": 857, "vor": 858, "\u0120rel": 859, "\u0120like": 860, "\u0120polic": 861, "\u0120gu": 862, "wor": 863, "ac": 864, "\u0120under": 865, "\u0120unser": 866, "wend": 867, "iven": 868, "sche": 869, "\u0120vo": 870, "\u00c3\u00a4l": 871, "kte": 872, "\u0120art": 873, "ices": 874, "\u0120gesch": 875, "als": 876, "ider": 877, "ally": 878, "ange": 879, "legen": 880, "\u0120pr\u00c3\u00a4sident": 881, "ov": 882, "\u0120report": 883, "ient": 884, "cre": 885, "\u0120what": 886, "atz": 887, "lung": 888, "\u0120them": 889, "\u0120diesem": 890, "led": 891, "\u0120countries": 892, "\u0120parlament": 893, "iger": 894, "act": 895, "wie": 896, "sen": 897, "\u0120high": 898, "halten": 899, "iament": 900, "\u0120propos": 901, "\u0120nat": 902, "auf": 903, "\u0120when": 904, "\u0120agre": 905, "\u0120just": 906, "\u0120well": 907, "\u0120viel": 908, "fer": 909, "\u0120\u00c3\u00b6": 910, "\u0120sehr": 911, "\u0120europ\u00c3\u00a4ische": 912, "\u0120parliament": 913, "\u0120hier": 914, "wir": 915, "\u0120eing": 916, "ays": 917, "min": 918, "enz": 919, "man": 920, "\u0120wirtschaft": 921, "\u0120unterst": 922, "\u0120mitgliedstaaten": 923, "\u0120ko": 924, "\u0120zeit": 925, "\u0120peop": 926, "\u0120commun": 927, "\u0120partic": 928, "\u0120leg": 929, "ale": 930, "\u0120than": 931, "\u0120my": 932, "iden": 933, "\u0120add": 934, "\u0120stand": 935, "ustr": 936, "ism": 937, "ett": 938, "\u0120first": 939, "\u0120geb": 940, "\u0120into": 941, "\u0120support": 942, "\u0120lie": 943, "\u0120hel": 944, "\u0120person": 945, "\u0120sta": 946, "\u0120ben": 947, "use": 948, "\u0120direct": 949, "\u0120system": 950, "\u0120publ": 951, "\u0120some": 952, "\u0120eines": 953, "oy": 954, "\u0120dieses": 955, "etzt": 956, "\u0120seit": 957, "\u0120wel": 958, "ibt": 959, "sicht": 960, "\u0120incl": 961, "\u0120organ": 962, "\u0120su": 963, "\u0120energ": 964, "u\u00c3\u0141": 965, "\u0120vers": 966, "\u0120wicht": 967, "wn": 968, "own": 969, "nahmen": 970, "eration": 971, "\u0120grund": 972, "\u0120ph": 973, "\u0120et": 974, "rat": 975, "\u0120use": 976, "\u0120zwischen": 977, "),": 978, "zeit": 979, "\u0120sicher": 980, "leg": 981, "\u0120med": 982, "enden": 983, "\u0120invest": 984, "ards": 985, "\u0120form": 986, "\u0120kn": 987, "urs": 988, "isten": 989, "ween": 990, "\u0120were": 991, "uer": 992, "\u0120people": 993, "\u0120world": 994, "kl": 995, "\u0120sowie": 996, "hand": 997, "\u0120diff": 998, "\u0120between": 999, "pon": 1000, "\u0120sc": 1001, "eln": 1002, "els": 1003, "unden": 1004, "mo": 1005, "\u0120199": 1006, "\u0120bereit": 1007, "\u0120kl": 1008, "\u0120af": 1009, "\u0120qual": 1010, "ha": 1011, "\u0120now": 1012, "\u0120unterst\u00c3\u00bctz": 1013, "ives": 1014, "ull": 1015, "pect": 1016, "\u0120requ": 1017, "\u0120rest": 1018, "halt": 1019, "ention": 1020, "\u0120most": 1021, "\u0120finanz": 1022, "\u0120mach": 1023, "unt": 1024, "igung": 1025, "\u0120dr": 1026, "\u0120loc": 1027, "ory": 1028, "tre": 1029, "\u0120bed": 1030, "\u0120bere": 1031, "\u0120av": 1032, "kommen": 1033, "ural": 1034, "\u0120vom": 1035, "ell": 1036, "h\u00c3\u00b6r": 1037, "\u0120stat": 1038, "\u0120policy": 1039, "\u0120m\u00c3\u00b6glich": 1040, "\u0120einz": 1041, "essen": 1042, "ause": 1043, "\u0120conc": 1044, "dit": 1045, "ieden": 1046, "ating": 1047, "\u0120commit": 1048, "los": 1049, "\u0120vorsch": 1050, "\u0120jo": 1051, "\u0120zwe": 1052, "\u0120pla": 1053, "\u0120car": 1054, "\u0120ma\u00c3\u0141": 1055, "mar": 1056, "\u0120cre": 1057, "ink": 1058, "\u0120again": 1059, "\u0120fest": 1060, "por": 1061, "olit": 1062, "\u0120weiter": 1063, "iet": 1064, "ues": 1065, "\u0120menschen": 1066, "\u0120ever": 1067, "\u0120ac": 1068, "\u0120gel": 1069, "\u0120bus": 1070, "\u0120sel": 1071, "\u0120son": 1072, "zial": 1073, "ict": 1074, "\u0120may": 1075, "\u0120welt": 1076, "\u0120richt": 1077, "dem": 1078, "\u0120development": 1079, "je": 1080, "ision": 1081, "\u01206": 1082, "\u0120ihnen": 1083, "forder": 1084, "\u0120make": 1085, "\u0120m\u00c3\u00b6chte": 1086, "zie": 1087, "\u0120important": 1088, "chts": 1089, "\u0120industr": 1090, "\u0120teil": 1091, "ights": 1092, "\u0120many": 1093, "l\u00c3\u00a4": 1094, "vern": 1095, "sible": 1096, "\u00c3\u00a4ch": 1097, "\u0120situ": 1098, "\u0120bericht": 1099, "\u00c3\u00bchr": 1100, "\u0120his": 1101, "\u0120unsere": 1102, "uf": 1103, "\u0120take": 1104, "\u0120fund": 1105, "\u0120cour": 1106, "\u0120europa": 1107, "\u0120deb": 1108, "\u0120bar": 1109, "\u0120see": 1110, "\u0120economic": 1111, "\u0120thro": 1112, "ous": 1113, "\u0120end": 1114, "ages": 1115, "abe": 1116, "issen": 1117, "\u0120sin": 1118, "\u0120kom": 1119, "iff": 1120, "cted": 1121, "\u0120u": 1122, "\u0120hum": 1123, "halb": 1124, "\u0120strateg": 1125, "\u0120get": 1126, "tro": 1127, "ffent": 1128, "\u0120public": 1129, "\u0120pra": 1130, "ats": 1131, "\u00c3\u00a4ft": 1132, "\u0120two": 1133, "\u0120ange": 1134, "ys": 1135, "\u0120product": 1136, "\u0120201": 1137, "nis": 1138, "isation": 1139, "rauch": 1140, "\u0120appro": 1141, "\u0120group": 1142, "lie\u00c3\u0141": 1143, "ital": 1144, "\u0120where": 1145, "\u0120ihrer": 1146, "\u0120akt": 1147, "ved": 1148, "\u0120ke": 1149, "\u0120cle": 1150, "\u0120unternehmen": 1151, "bes": 1152, "\u0120erw": 1153, "stell": 1154, "\u0120bereich": 1155, "ium": 1156, "amen": 1157, "\u0120through": 1158, "\u0120damit": 1159, "oth": 1160, "ster": 1161, "ree": 1162, "com": 1163, "\u0120years": 1164, "urr": 1165, "\u0120mill": 1166, "\u0120versch": 1167, "\u0120room": 1168, "\u0120muss": 1169, "och": 1170, "\u0120real": 1171, "\u0120made": 1172, "\u0120fol": 1173, "\u0120fun": 1174, "\u0120gener": 1175, "000": 1176, "ters": 1177, "\u0120iss": 1178, "\u0120minister": 1179, "trag": 1180, "abl": 1181, "\u0120instit": 1182, "ma": 1183, "ior": 1184, "bal": 1185, "fin": 1186, "\u0120gibt": 1187, "ever": 1188, "\u0120because": 1189, "\u0120keine": 1190, "\u0120wieder": 1191, "\u0120beg": 1192, "str": 1193, "\u0120particular": 1194, "\u0120good": 1195, "\u0120col": 1196, "lag": 1197, "\u0120bu": 1198, "ischer": 1199, "\u0120gro\u00c3\u0141": 1200, "\u0120beste": 1201, "day": 1202, "\u0120gleich": 1203, "\u0120after": 1204, "\u0120finan": 1205, "\u0120num": 1206, "\u0120est": 1207, "\u0120deut": 1208, "stand": 1209, "\u0120disc": 1210, "\u0120those": 1211, "\u0120human": 1212, "\u0120anderen": 1213, "\u0120find": 1214, "\u00c3\u00a4m": 1215, "\u0120cent": 1216, "setz": 1217, "\u0120schw": 1218, "\u0120govern": 1219, "\u0120verein": 1220, "mittel": 1221, "\u0120gemeins": 1222, "\u0120great": 1223, "\u0120process": 1224, "nung": 1225, "\u0120prote": 1226, "\u0120every": 1227, "\u0120eng": 1228, "\u0120order": 1229, "erung": 1230, "\u0120priv": 1231, "it\u00c3\u00a4": 1232, "\u0120fran": 1233, "\u01207": 1234, "innen": 1235, "\u0120cr": 1236, "\u0120fur": 1237, "par": 1238, "\u0120concern": 1239, "\u0120compan": 1240, "\u0120even": 1241, "ession": 1242, "\u0120far": 1243, "\u0120agreement": 1244, "\u00c3\u00a4lt": 1245, "feren": 1246, "br": 1247, "\u0120char": 1248, "\u0120fam": 1249, "rei": 1250, "\u01208": 1251, "isse": 1252, "net": 1253, "\u0120respon": 1254, "\u0120includ": 1255, "\u0120social": 1256, "av": 1257, "tegr": 1258, "\u0120air": 1259, "lle": 1260, "erv": 1261, "ument": 1262, "\u0120meas": 1263, "\u0120state": 1264, "\u00c3\u00a4ndern": 1265, "\u0120bl": 1266, "\u0120wurden": 1267, "ited": 1268, "\u0120view": 1269, "itz": 1270, "ware": 1271, "llow": 1272, "\u0120eben": 1273, "bst": 1274, "weise": 1275, "unkt": 1276, "\u0120however": 1277, "gem": 1278, "\u0120env": 1279, "ace": 1280, "\u0120glo": 1281, "iti": 1282, "gend": 1283, "\u0120had": 1284, "\u0120sm": 1285, "geben": 1286, "alls": 1287, "\u0120val": 1288, "mal": 1289, "tens": 1290, "\u0120way": 1291, "\u0120ta": 1292, "\u0120leben": 1293, "\u0120integr": 1294, "\u0120incre": 1295, "tee": 1296, "kehr": 1297, "\u0120verf\u00c3\u00bc": 1298, "\u0120sim": 1299, "\u0120bie": 1300, "\u0120services": 1301, "\u0120del": 1302, "\u012010": 1303, "\u0120sign": 1304, "\u0120met": 1305, "\u0120f\u00c3\u00bchr": 1306, "olitik": 1307, "\u0120ide": 1308, "\u0120diesen": 1309, "\u0120regul": 1310, "ivers": 1311, "\u0120haus": 1312, "hin": 1313, "\u0120bede": 1314, "\u0120problem": 1315, "\u0120compet": 1316, "\u0120area": 1317, "ath": 1318, "\u0120level": 1319, "\u0120entwicklung": 1320, "ina": 1321, "\u0120cap": 1322, "\u0120arbeits": 1323, "\u0120ma\u00c3\u0141nahmen": 1324, "iron": 1325, "isen": 1326, "iness": 1327, "trib": 1328, "\u0120contin": 1329, "\u0120prof": 1330, "\u0120appl": 1331, "\u0120sozial": 1332, "cept": 1333, "\u0120heute": 1334, "\u0120bre": 1335, "gesch": 1336, "\u01209": 1337, "ont": 1338, "\u0120technolog": 1339, "\u0120neue": 1340, "\u0120curr": 1341, "\u0120effect": 1342, "\u0120sec": 1343, "fore": 1344, "\u0120rem": 1345, "\u0120know": 1346, "gest": 1347, "\u0120mittel": 1348, "ful": 1349, "\u0120lu": 1350, "\u0120ant": 1351, "king": 1352, "\u00c3\u00b6s": 1353, "\u0120rights": 1354, "\u0120rahmen": 1355, "\u0120inn": 1356, "\u0120bek": 1357, "raft": 1358, "\u0120ze": 1359, "eng": 1360, "\u0120environ": 1361, "\u0120dann": 1362, "fahren": 1363, "\u0120being": 1364, "\u0120dat": 1365, "ower": 1366, "pen": 1367, "nahme": 1368, "\u0120therefore": 1369, "inn": 1370, "rag": 1371, "ploy": 1372, "zeich": 1373, "\u0120star": 1374, "\u0120immer": 1375, "\u0120right": 1376, "\u0120ens": 1377, "\u0120w\u00c3\u00bcr": 1378, "\u00c3\u0141er": 1379, "luss": 1380, "\u0120fact": 1381, "\u0120service": 1382, "\u0120bel": 1383, "\u0120auth": 1384, "ften": 1385, "\u0120rechts": 1386, "\u0120situation": 1387, "\u0120vis": 1388, "\u0120lang": 1389, "laub": 1390, "ingen": 1391, "\u0120quest": 1392, "gel": 1393, "hne": 1394, "\u0120stud": 1395, "\u0120cor": 1396, "\u0120environment": 1397, "\u0120b\u00c3\u00bcr": 1398, "\u0120manag": 1399, "\u0120follow": 1400, "\u0120within": 1401, "\u0120community": 1402, "work": 1403, "\u0120seine": 1404, "ply": 1405, "\u0120ihren": 1406, "\u0120ganz": 1407, "\u0120political": 1408, "\u0120jedoch": 1409, "\u0120selbst": 1410, "\u0120imple": 1411, "\u0120here": 1412, "lagen": 1413, "read": 1414, "esent": 1415, "\u0120el": 1416, "\u0120business": 1417, "\u0120number": 1418, "fort": 1419, "\u0120own": 1420, "\u0120kr": 1421, "icult": 1422, "\u0120entsche": 1423, "\u0120rev": 1424, "gang": 1425, "\u0120stru": 1426, "\u0120ur": 1427, "hol": 1428, "dition": 1429, "\u00c3\u00a4tz": 1430, "\u0120both": 1431, "ily": 1432, "\u0120w\u00c3\u00a4hr": 1433, "ines": 1434, "\u0120full": 1435, "\u0120betr": 1436, "kon": 1437, "\u0120opt": 1438, "ently": 1439, "\u0120neuen": 1440, "\u0120comple": 1441, "\u0120bro": 1442, "\u0120belie": 1443, "\u0120set": 1444, "ving": 1445, "ondere": 1446, "wort": 1447, "lage": 1448, "m\u00c3\u00b6": 1449, "\u0120clear": 1450, "ps": 1451, "\u0120lar": 1452, "hip": 1453, "\u0120provid": 1454, "\u0120play": 1455, "ix": 1456, "satz": 1457, "\u0120mich": 1458, "\u0120gemeinschaft": 1459, "\u0120beit": 1460, "urn": 1461, "\u0120global": 1462, "\u0120aff": 1463, "\u0120financial": 1464, "\u0120project": 1465, "\u0120against": 1466, "rechen": 1467, "\u0120further": 1468, "operation": 1469, "\u0120could": 1470, "acht": 1471, "ised": 1472, "\u0120\u00c3\u00b6ffent": 1473, "\u0120%": 1474, "\u0120programm": 1475, "\u0120bereits": 1476, "\u0120equ": 1477, "licher": 1478, "\u0120ziel": 1479, "\u0120place": 1480, "\u0120sk": 1481, "\u0120last": 1482, "\u0120possible": 1483, "richt": 1484, "\u0120exper": 1485, "chten": 1486, "\u0120avail": 1487, "fra": 1488, "\u0120exam": 1489, "co": 1490, "\u0120zahl": 1491, "bl": 1492, "\u0120nor": 1493, "ough": 1494, "\u0120gar": 1495, "alen": 1496, "utions": 1497, "\u0120port": 1498, "atter": 1499, "ertain": 1500, "\u0120internet": 1501, "\u0120prin": 1502, "ktur": 1503, "\u0120treat": 1504, "ount": 1505, "ierten": 1506, "\u0120sollte": 1507, "\u0120adop": 1508, "\u0120gra": 1509, "elle": 1510, "\u0120fut": 1511, "\u0120wichtig": 1512, "ierte": 1513, "\u0120const": 1514, "\u0120million": 1515, "welt": 1516, "ler": 1517, "\u0120redu": 1518, "\u0120programme": 1519, "\u0120mus": 1520, "\u0120consider": 1521, "\u0120does": 1522, "\u0120sicherheit": 1523, "\u00c3\u00a4h": 1524, "schlie\u00c3\u0141": 1525, "\u0120design": 1526, "gar": 1527, "\u0120var": 1528, "\u0120impro": 1529, "\u0120bud": 1530, "\u0120rep": 1531, "\u0120initi": 1532, "\u0120net": 1533, "\u0120webs": 1534, "\u0120author": 1535, "ows": 1536, "\u0120access": 1537, "ende": 1538, "\u0120eigen": 1539, "fach": 1540, "\u0120kle": 1541, "\u0120bestimm": 1542, "\u0120same": 1543, "istr": 1544, "\u0120frau": 1545, "\u0120sur": 1546, "\u0120repr": 1547, "\u0120oper": 1548, "\u0120verw": 1549, "\u0120measures": 1550, "cing": 1551, "air": 1552, "\u0120dazu": 1553, "20": 1554, "\u0120etw": 1555, "ritt": 1556, "\u0120exp": 1557, "round": 1558, "\u0120dien": 1559, "\u0120ris": 1560, "\u0120mod": 1561, "ests": 1562, "\u00c3\u00a4ng": 1563, "ift": 1564, "\u0120ausge": 1565, "\u0120open": 1566, "\u0120je": 1567, "\u0120stell": 1568, "tem": 1569, "itt": 1570, "\u0120unserer": 1571, "\u0120free": 1572, "ude": 1573, "\u0120then": 1574, "zeug": 1575, "aben": 1576, "\u0120kol": 1577, "\u0120require": 1578, "\u0120vol": 1579, "org": 1580, "az": 1581, "\u0120zwei": 1582, "\u0120denn": 1583, "iver": 1584, "\u0120law": 1585, "\u0120erfol": 1586, "\u0120hol": 1587, "\u0120hal": 1588, "\u0120au\u00c3\u0141er": 1589, "ics": 1590, "immer": 1591, "ability": 1592, "alth": 1593, "\u0120down": 1594, "att": 1595, "\u0120ohne": 1596, "\u0120scha": 1597, "\u0120nutz": 1598, "bewer": 1599, "\u0120adv": 1600, "\u0120aller": 1601, "\u0120letz": 1602, "isp": 1603, "\u0120german": 1604, "\u0120wen": 1605, "\u0120spec": 1606, "\u0120sollten": 1607, "\u0120plan": 1608, "\u0120...": 1609, "\u0120\u00c3\u00a4nder": 1610, "\u0120main": 1611, "\u0120gr\u00c3\u00b6": 1612, "\u0120tre": 1613, "weit": 1614, "its": 1615, "f\u00c3\u00bcr": 1616, "\u00c3\u00a4\u00c3\u0141": 1617, "aut": 1618, "\u0120gut": 1619, "\u0120ir": 1620, "\u0120recht": 1621, "ons": 1622, "\u0120zusammenarbeit": 1623, "les": 1624, "wert": 1625, "\u0120denen": 1626, "line": 1627, "\u0120sw": 1628, "zus": 1629, "\u0120since": 1630, "ication": 1631, "vers": 1632, "\u0120verbess": 1633, "\u0120meet": 1634, "\u0120sondern": 1635, "\u0120differ": 1636, "\u0120bal": 1637, "\u0120mil": 1638, "\u0120umf": 1639, "\u012015": 1640, "\u0120andere": 1641, "\u0120reform": 1642, "ruck": 1643, "\u0120sect": 1644, "\u0120habe": 1645, "\u0120help": 1646, "ktor": 1647, "adt": 1648, "\u0120offer": 1649, "entral": 1650, "\u0120available": 1651, "\u0120begr": 1652, "\u0120jahren": 1653, "st\u00c3\u00a4nd": 1654, "\u0120future": 1655, "\u0120long": 1656, "\u0120today": 1657, "\u0120bez": 1658, "\u0120prior": 1659, "\u0120gest": 1660, "\u0120secur": 1661, "linie": 1662, "tellt": 1663, "\u0120still": 1664, "ettbewer": 1665, "\u0120b\u00c3\u00bcrger": 1666, "\u0120h\u00c3\u00b6": 1667, "\u0120[": 1668, "rol": 1669, "ry": 1670, "\u0120products": 1671, "upt": 1672, "hm": 1673, "nisse": 1674, "\u0120used": 1675, "\u0120bank": 1676, "\u0120f\u00c3\u00b6r": 1677, "\u0120without": 1678, "ize": 1679, "\u0120energy": 1680, "\u0120ple": 1681, "imin": 1682, "ders": 1683, "\u0120implement": 1684, "\u0120neg": 1685, "\u0120want": 1686, "\u0120country": 1687, "\u0120fall": 1688, "\u0120committee": 1689, "kr": 1690, "oll": 1691, "\u0120voll": 1692, "\u0120har": 1693, "kl\u00c3\u00a4r": 1694, "\u0120fort": 1695, "besondere": 1696, "ilfe": 1697, "\u0120amen": 1698, "\u0120special": 1699, "\u0120wissen": 1700, "\u0120russ": 1701, "kten": 1702, "ade": 1703, "\u0120prev": 1704, "\u0120innov": 1705, "\u0120ital": 1706, "so": 1707, "\u0120before": 1708, "\u0120cit": 1709, "\u0120general": 1710, "\u0120dah": 1711, "\u0120att": 1712, "\u0120cust": 1713, "\u00c3\u00a4hl": 1714, "\u0120gef": 1715, "kun": 1716, "\u0120fil": 1717, "\u0120umwelt": 1718, "ins": 1719, "politik": 1720, "\u0120activ": 1721, "\u0120k\u00c3\u00b6nn": 1722, "\u0120wettbewer": 1723, "\u0120hist": 1724, "\u0120insbesondere": 1725, "\u0120much": 1726, "\u0120einge": 1727, "reichen": 1728, "ator": 1729, "ential": 1730, "\u0120bedeut": 1731, "\u0120sy": 1732, "isl": 1733, "urch": 1734, "esse": 1735, "\u0120eas": 1736, "\u0120lin": 1737, "aur": 1738, "ivid": 1739, "wohl": 1740, "lichkeit": 1741, "\u0120members": 1742, "unter": 1743, "\u0120grow": 1744, "\u0120common": 1745, "\u0120frage": 1746, "\u0120custom": 1747, "lungs": 1748, "\u0120back": 1749, "\u0120during": 1750, "\u0120budget": 1751, "\u0120ach": 1752, "ready": 1753, "\u0120data": 1754, "\u0120say": 1755, "leist": 1756, "pre": 1757, "ierungs": 1758, "\u0120ty": 1759, "\u0120viele": 1760, "ichte": 1761, "ically": 1762, "\u0120already": 1763, "abil": 1764, "\u0120som": 1765, "\u0120li": 1766, "\u0120aid": 1767, "\u0120verschieden": 1768, "ules": 1769, "tr\u00c3\u00a4": 1770, "\u0120gesam": 1771, "\u0120able": 1772, "derung": 1773, "ves": 1774, "\u0120different": 1775, "\u0120spiel": 1776, "\u00c3\u00a4re": 1777, "amp": 1778, "\u0120position": 1779, "\u0120object": 1780, "\u0120daten": 1781, "\u0120transport": 1782, "\u0120informationen": 1783, "\u0120amer": 1784, "\u0120pat": 1785, "\u0120directive": 1786, "ward": 1787, "ified": 1788, "\u0120beisp": 1789, "ef": 1790, "\u0120allen": 1791, "\u0120finden": 1792, "\u0120case": 1793, "une": 1794, "heiten": 1795, "\u0120commissioner": 1796, "\u0120security": 1797, "ablish": 1798, "\u0120employ": 1799, "ene": 1800, "\u0120darauf": 1801, "\u0120amend": 1802, "\u0120put": 1803, "\u0120maj": 1804, "ence": 1805, "\u0120proposal": 1806, "gress": 1807, "off": 1808, "way": 1809, "\u0120cooperation": 1810, "rop": 1811, "\u0120legisl": 1812, "\u0120certain": 1813, "\u0120small": 1814, "licht": 1815, "rif": 1816, "ible": 1817, "\u0120action": 1818, "\u0120secon": 1819, "spr": 1820, "\u0120einige": 1821, "\u0120agr": 1822, "\u0120citiz": 1823, "\u0120health": 1824, "\u0120nun": 1825, "\u0120markt": 1826, "elf": 1827, "bo": 1828, "\u0120soft": 1829, "\u0120ensure": 1830, "\u0120point": 1831, "\u0120jetzt": 1832, "\u0120doch": 1833, "ists": 1834, "spar": 1835, "\u0120aussch": 1836, "\u0120cas": 1837, "fern": 1838, "\u0120w\u00c3\u00a4hrend": 1839, "\u0120ru": 1840, "que": 1841, "\u0120tour": 1842, "press": 1843, "\u0120establish": 1844, "fte": 1845, "\u0120cost": 1846, "kunft": 1847, "\u0120regard": 1848, "\u0120each": 1849, "\u0120zust": 1850, "wirtschaft": 1851, "\u0120entsp": 1852, "ife": 1853, "reg": 1854, "\u0120pal": 1855, "\u0120trade": 1856, "\u0120areas": 1857, "ationen": 1858, "\u0120daher": 1859, "isierung": 1860, "riften": 1861, "ased": 1862, "\u0120achie": 1863, "ants": 1864, "zen": 1865, "bere": 1866, "ience": 1867, "\u0120besonder": 1868, "\u0120bit": 1869, "\u0120daf\u00c3\u00bcr": 1870, "markt": 1871, "\u0120look": 1872, "\u0120major": 1873, "\u0120ref": 1874, "h\u00c3\u00a4lt": 1875, "\u0120second": 1876, "\u0120erst": 1877, "\u0120posit": 1878, "\u0120inde": 1879, "tend": 1880, "\u0120democ": 1881, "\u0120restaur": 1882, "\u0120protection": 1883, "\u0120pass": 1884, "halts": 1885, "\u0120city": 1886, "ahre": 1887, "\u0120including": 1888, "hing": 1889, "lossen": 1890, "\u0120seiner": 1891, "\u0120verf\u00c3\u00bcg": 1892, "\u0120\u00c3\u00a4": 1893, "\u01200": 1894, "reit": 1895, "\u0120instr": 1896, "\u0120modern": 1897, "grund": 1898, "\u0120det": 1899, "cr": 1900, "\u012012": 1901, "\u0120control": 1902, "\u0120m\u00c3\u00b6glichkeit": 1903, "ordin": 1904, "\u0120waren": 1905, "\u0120think": 1906, "ichts": 1907, "over": 1908, "setzung": 1909, "\u0120individ": 1910, "\u00c3\u00bcnd": 1911, "akt": 1912, "ness": 1913, "\u0120machen": 1914, "\u0120cal": 1915, "punkt": 1916, "\u0120mob": 1917, "\u0120stra": 1918, "\u0120id": 1919, "ismus": 1920, "program": 1921, "issar": 1922, "\u00c3\u00b6l": 1923, "\u0120cann": 1924, "\u0120quality": 1925, "uth": 1926, "bed": 1927, "\u0120du": 1928, "\u0120text": 1929, "\u0120necess": 1930, "ziel": 1931, "\u0120consum": 1932, "\u0120weil": 1933, "\u0120rules": 1934, "igten": 1935, "earch": 1936, "\u0120citizens": 1937, "\u00c3\u00bch": 1938, "\u0120rom": 1939, "\u0120beispiel": 1940, "ep": 1941, "\u0120bild": 1942, "\u0120basis": 1943, "200": 1944, "dert": 1945, "\u0120kur": 1946, "\u012018": 1947, "\u0120mult": 1948, "\u0120vorschlag": 1949, "ums": 1950, "dr": 1951, "genommen": 1952, "come": 1953, "i\u00c3\u0141": 1954, "\u0120conf": 1955, "ordnung": 1956, "kre": 1957, "\u0120government": 1958, "\u0120research": 1959, "\u0120sl": 1960, "\u0120gr\u00c3\u00b6\u00c3\u0141": 1961, "ragen": 1962, "ichten": 1963, "\u0120proje": 1964, "\u0120addition": 1965, "f\u00c3\u00bchrt": 1966, "\u0120elect": 1967, "po": 1968, "\u0120said": 1969, "\u0120ret": 1970, "okrat": 1971, "\u0120while": 1972, "\u0120tele": 1973, "\u0120found": 1974, "\u0120lage": 1975, "\u0120question": 1976, "\u0120mot": 1977, "\u0120l\u00c3\u00a4nder": 1978, "\u0120rates": 1979, "\u0120management": 1980, "lect": 1981, "\u0120mor": 1982, "\u0120bietet": 1983, "\u0120pay": 1984, "\u0120einfach": 1985, "\u0120kosten": 1986, "\u0120house": 1987, "\u0120zur\u00c3\u00bcck": 1988, "\u0120nie": 1989, "ining": 1990, "\u0120ann": 1991, "\u0120conv": 1992, "\u0120key": 1993, "\u0120folgen": 1994, "iew": 1995, "komm": 1996, "\u0120regional": 1997, "abei": 1998, "annt": 1999, "\u0120liegt": 2000, "\u0120three": 2001, "ica": 2002, "\u0120dabei": 2003, "\u0120allow": 2004, "\u0120verl": 2005, "\u0120w\u00c3\u00bcrde": 2006, "\u0120einzel": 2007, "assung": 2008, "\u0120power": 2009, "\u0120unterst\u00c3\u00bctzung": 2010, "\u0120terr": 2011, "\u0120provide": 2012, "\u0120meine": 2013, "\u0120reas": 2014, "\u0120fle": 2015, "schaften": 2016, "\u0120present": 2017, "ilt": 2018, "\u0120jahre": 2019, "ander": 2020, "ron": 2021, "gleich": 2022, "\u0120notwend": 2023, "\u0120che": 2024, "\u0120course": 2025, "med": 2026, "\u0120erkl\u00c3\u00a4r": 2027, "\u0120discuss": 2028, "\u0120cult": 2029, "\u0120wirk": 2030, "iving": 2031, "urg": 2032, "\u0120systems": 2033, "\u01202009": 2034, "\u0120software": 2035, "\u0120ear": 2036, "\u0120hoch": 2037, "\u0120energie": 2038, "\u0120day": 2039, "icher": 2040, "\u0120dep": 2041, "\u0120too": 2042, "legt": 2043, "\u0120dial": 2044, "ately": 2045, "\u0120cannot": 2046, "immt": 2047, "aterial": 2048, "ird": 2049, "\u0120politik": 2050, "\u0120respect": 2051, "\u0120bin": 2052, "\u0120dar\u00c3\u00bcber": 2053, "ellschaft": 2054, "lungen": 2055, "\u0120weitere": 2056, "\u0120zweit": 2057, "\u0120website": 2058, "\u0120tax": 2059, "\u0120gew\u00c3\u00a4hr": 2060, "han": 2061, "\u0120sing": 2062, "\u0120believe": 2063, "f\u00c3\u00bchrung": 2064, "\u0120resol": 2065, "bau": 2066, "\u0120geht": 2067, "\u0120frame": 2068, "\u0120non": 2069, "\u0120institution": 2070, "ains": 2071, "\u0120princ": 2072, "res": 2073, "ross": 2074, "\u0120zie": 2075, "\u0120fragen": 2076, "\u0120partner": 2077, "\u0120beim": 2078, "stellen": 2079, "\u0120tun": 2080, "\u0120means": 2081, "\u0120taken": 2082, "gemein": 2083, "\u0120contrib": 2084, "vement": 2085, "\u0120st\u00c3\u00a4r": 2086, "\u0120def": 2087, "\u0120pop": 2088, "\u0120start": 2089, "\u0120rap": 2090, "ditions": 2091, "\u0120proced": 2092, "\u0120mal": 2093, "\u0120schon": 2094, "ged": 2095, "zahl": 2096, "\u0120child": 2097, "\u0120result": 2098, "\u0120next": 2099, "ake": 2100, "\u0120partn": 2101, "\u0120autom": 2102, "\u0120x": 2103, "amer": 2104, "\u0120mir": 2105, "it\u00c3\u00a4ten": 2106, "vorsch": 2107, "\u0120lab": 2108, "ond": 2109, "ucht": 2110, "\u0120decision": 2111, "\u0120fore": 2112, "\u0120bess": 2113, "\u0120entscheid": 2114, "\u0120example": 2115, "\u0120lebens": 2116, "iate": 2117, "\u0120issue": 2118, "\u0120account": 2119, "ob": 2120, "iben": 2121, "\u0120legal": 2122, "syste": 2123, "gangen": 2124, "ually": 2125, "\u0120eur": 2126, "\u0120demokrat": 2127, "omen": 2128, "\u0120drei": 2129, "red": 2130, "ccess": 2131, "imes": 2132, "ress": 2133, "inen": 2134, "\u0120pract": 2135, "ivil": 2136, "\u0120anal": 2137, "\u0120necessary": 2138, "antwort": 2139, "\u0120accord": 2140, "ogra": 2141, "\u0120nat\u00c3\u00bcr": 2142, "\u0120dienst": 2143, "ktionen": 2144, "plan": 2145, "\u0120rele": 2146, "kungen": 2147, "\u0120build": 2148, "iter": 2149, "\u0120lim": 2150, "igkeiten": 2151, "esen": 2152, "\u0120stehen": 2153, "\u0120san": 2154, "\u0120aim": 2155, "\u0120allem": 2156, "astr": 2157, "\u0120given": 2158, "\u0120dra": 2159, "utes": 2160, "undheit": 2161, "\u0120lassen": 2162, "ko": 2163, "stellung": 2164, "wendung": 2165, "\u0120tro": 2166, "\u0120inner": 2167, "mb": 2168, "\u0120richtlinie": 2169, "\u0120sector": 2170, "\u0120offers": 2171, "etzen": 2172, "gaben": 2173, "\u0120problems": 2174, "bereich": 2175, "portun": 2176, "zieh": 2177, "\u0120famil": 2178, "clus": 2179, "\u0120dialog": 2180, "\u0120kommissar": 2181, "\u0120lis": 2182, "\u0120vertrag": 2183, "\u0120rooms": 2184, "iod": 2185, "\u0120opportun": 2186, "ec": 2187, "\u0120rece": 2188, "\u0120besch\u00c3\u00a4ft": 2189, "\u0120erfolg": 2190, "\u0120let": 2191, "\u0120change": 2192, "\u0120book": 2193, "ichter": 2194, "\u0120defin": 2195, "\u0120tradition": 2196, "\u0120herrn": 2197, "eld": 2198, "\u0120enter": 2199, "wards": 2200, "\u012011": 2201, "mon": 2202, "other": 2203, "\u0120based": 2204, "\u0120sum": 2205, "ized": 2206, "\u0120invol": 2207, "\u0120gre": 2208, "falls": 2209, "glichen": 2210, "iation": 2211, "\u0120success": 2212, "\u0120deshalb": 2213, "\u0120kin": 2214, "ises": 2215, "\u0120large": 2216, "hof": 2217, "\u0120company": 2218, "\u0120read": 2219, "\u0120why": 2220, "\u0120bew": 2221, "\u0120kult": 2222, "\u0120wollen": 2223, "\u0120framework": 2224, "\u0120united": 2225, "ren": 2226, "ets": 2227, "\u0120abge": 2228, "allen": 2229, "\u0120univers": 2230, "isions": 2231, "\u0120dav": 2232, "\u0120schutz": 2233, "umen": 2234, "\u0120tag": 2235, "\u012030": 2236, "r\u00c3\u00a4n": 2237, "gehen": 2238, "ways": 2239, "zess": 2240, "\u0120wach": 2241, "\u0120give": 2242, "\u0120sal": 2243, "\u0120stellen": 2244, "\u0120following": 2245, "\u0120regel": 2246, "\u0120&": 2247, "\u0120vertre": 2248, "\u0120erhalten": 2249, "text": 2250, "dam": 2251, "\u0120benef": 2252, "f\u00c3\u00a4h": 2253, "schied": 2254, "\u0120better": 2255, "\u0120infr": 2256, "\u0120transpar": 2257, "\u0120represent": 2258, "orth": 2259, "\u0120progress": 2260, "asser": 2261, "\u0120personal": 2262, "\u0120fiel": 2263, "\u0120l\u00c3\u00a4ndern": 2264, "iety": 2265, "\u0120span": 2266, "schutz": 2267, "ty": 2268, "\u0120bil": 2269, "\u0120ergeb": 2270, "\u0120ander": 2271, "ared": 2272, "uchen": 2273, "ker": 2274, "\u0120life": 2275, "ding": 2276, "ahn": 2277, "\u00c3\u00a4d": 2278, "\u0120heraus": 2279, "\u0120schne": 2280, "\u0120dank": 2281, "angen": 2282, "\u0120verbrauch": 2283, "m\u00c3\u00b6glich": 2284, "\u0120growth": 2285, "\u0120lead": 2286, "\u0120parlaments": 2287, "ting": 2288, "ock": 2289, "\u012025": 2290, "\u0120current": 2291, "\u0120ersten": 2292, "ether": 2293, "\u0120food": 2294, "\u0120companies": 2295, "\u0120erforder": 2296, "\u0120l\u00c3\u00b6s": 2297, "\u01202010": 2298, "\u0120wind": 2299, "leit": 2300, "raum": 2301, "ritte": 2302, "ively": 2303, "\u0120partners": 2304, "h\u00c3\u00a4ng": 2305, "ference": 2306, "\u0120effort": 2307, "\u0120online": 2308, "\u0120imp": 2309, "\u0120struct": 2310, "\u0120press": 2311, "ingungen": 2312, "\u0120comb": 2313, "\u0120internationalen": 2314, "zept": 2315, "\u0120republ": 2316, "\u0120third": 2317, "tellen": 2318, "\u0120sehen": 2319, "\u0120needs": 2320, "\u0120conditions": 2321, "altung": 2322, "\u0120tar": 2323, "\u0120stadt": 2324, "\u0120abs": 2325, "\u0120kontro": 2326, "\u0120debate": 2327, "\u0120private": 2328, "ieg": 2329, "\u0120reach": 2330, "\u0120verantwort": 2331, "\u0120centre": 2332, "\u0120home": 2333, "\u0120ident": 2334, "\u0120bring": 2335, "\u0120wirtschafts": 2336, "\u0120unseren": 2337, "ength": 2338, "ught": 2339, "\u0120material": 2340, "ify": 2341, "uge": 2342, "\u0120court": 2343, "zw": 2344, "\u0120china": 2345, "\u0120mer": 2346, "\u0120glaub": 2347, "10": 2348, "ache": 2349, "\u0120regierung": 2350, "\u0120bor": 2351, "gestellt": 2352, "\u0120ec": 2353, "\u0120prom": 2354, "\u0120tats": 2355, "\u00c3\u00a4tze": 2356, "\u0120industry": 2357, "\u0120gl": 2358, "fre": 2359, "\u0120wal": 2360, "\u0120soc": 2361, "\u0120pack": 2362, "\u0120km": 2363, "\u0120stre": 2364, "\u0120forsch": 2365, "\u0120adopted": 2366, "ising": 2367, "\u0120pa": 2368, "\u0120bedeutung": 2369, "\u0120histor": 2370, "\u0120working": 2371, "\u0120interest": 2372, "\u0120negot": 2373, "\u0120issues": 2374, "sibility": 2375, "\u01202007": 2376, "\u0120nah": 2377, "\u01202008": 2378, "\u0120local": 2379, "uter": 2380, "\u0120facil": 2381, "\u0120gesundheit": 2382, "\u0120statt": 2383, "\u0120sport": 2384, "ca": 2385, "\u0120ask": 2386, "\u0120sens": 2387, "\u0120dan": 2388, "\u0120few": 2389, "\u0120another": 2390, "asch": 2391, "\u0120whether": 2392, "ogen": 2393, "\u0120verst": 2394, "ffe": 2395, "\u0120treaty": 2396, "\u0120lea": 2397, "\u0120come": 2398, "\u0120saf": 2399, "burg": 2400, "\u0120orig": 2401, "hang": 2402, "eder": 2403, "\u0120period": 2404, "\u0120exist": 2405, "\u0120water": 2406, "\u0120address": 2407, "\u0120role": 2408, "\u0120ihrem": 2409, "\u0120production": 2410, "fon": 2411, "\u0120toget": 2412, "\u0120ak": 2413, "amm": 2414, "\u0120welche": 2415, "\u0120together": 2416, "inge": 2417, "\u0120haushalts": 2418, "\u0120verpf": 2419, "\u0120besteht": 2420, "\u0120vi": 2421, "\u0120agricult": 2422, "eten": 2423, "\u0120stay": 2424, "bild": 2425, "\u0120afr": 2426, "cken": 2427, "\u0120post": 2428, "\u0120single": 2429, "\u0120hotels": 2430, "duc": 2431, "\u0120sor": 2432, "gabe": 2433, "immung": 2434, "\u0120fahr": 2435, "ser": 2436, "\u01202000": 2437, "chan": 2438, "\u0120tur": 2439, "\u0120specific": 2440, "\u0120anges": 2441, "pr\u00c3\u00bc": 2442, "\u0120allgemein": 2443, "\u0120geben": 2444, "\u0120ble": 2445, "gew": 2446, "\u0120ende": 2447, "\u0120organis": 2448, "ennt": 2449, "blick": 2450, "lands": 2451, "\u0120zimmer": 2452, "ning": 2453, "teilung": 2454, "\u0120central": 2455, "ikan": 2456, "druck": 2457, "\u0120etwas": 2458, "\u0120located": 2459, "aran": 2460, "\u0120produkt": 2461, "\u0120terms": 2462, "uments": 2463, "ief": 2464, "\u0120less": 2465, "\u0120tot": 2466, "\u0120web": 2467, "\u0120deren": 2468, "unde": 2469, "\u0120deutsch": 2470, "\u0120terror": 2471, "\u0120apart": 2472, "\u0120sagen": 2473, "]]": 2474, "\u0120worden": 2475, "ulation": 2476, "\u0120did": 2477, "rechte": 2478, "staat": 2479, "sequ": 2480, "\u0120letzten": 2481, "\u0120betre": 2482, "\u0120short": 2483, "\u0120tal": 2484, "\u0120install": 2485, "go": 2486, "\u0120frei": 2487, "iations": 2488, "\u0120einmal": 2489, "istance": 2490, "\u0120gesch\u00c3\u00a4ft": 2491, "\u0120regulation": 2492, "chs": 2493, "\u0120cho": 2494, "airs": 2495, "\u0120geh\u00c3\u00b6r": 2496, "\u0120strategy": 2497, "\u0120kunden": 2498, "\u0120origin": 2499, "\u0120jeder": 2500, "ven": 2501, "\u0120educ": 2502, "\u0120crit": 2503, "\u0120gol": 2504, "\u0120steht": 2505, "\u0120kont": 2506, "\u0120arch": 2507, "enten": 2508, "ikel": 2509, "\u0120ve": 2510, "\u0120particip": 2511, "\u0120chang": 2512, "\u0120r\u00c3\u00bcck": 2513, "\u0120shall": 2514, "\u0120individual": 2515, "\u0120rad": 2516, "ehen": 2517, "\u0120site": 2518, "\u012016": 2519, "\u0120somet": 2520, "\u0120weg": 2521, "ika": 2522, "\u0120[[": 2523, "\u0120visit": 2524, "\u0120version": 2525, "\u0120politischen": 2526, "\u0120seinen": 2527, "\u0120disk": 2528, "rie": 2529, "iar": 2530, "ety": 2531, "iges": 2532, "\u0120appe": 2533, "\u0120angeb": 2534, "\u00e2\u0124": 2535, "\u00e2\u0124\u00ac": 2536, "\u00c3\u00b6t": 2537, "\u0120continue": 2538, "\u0120integration": 2539, "\u012014": 2540, "\u0120approach": 2541, "\u0120mat": 2542, "\u0120kar": 2543, "\u0120authorities": 2544, "\u0120admin": 2545, "\u0120verk": 2546, "\u0120zukunft": 2547, "\u0120mind": 2548, "\u0120dom": 2549, "porte": 2550, "\u0120initiative": 2551, "\u0120resour": 2552, "\u0120klar": 2553, "\u0120innerhalb": 2554, "\u0120wettbewerbs": 2555, "\u0120using": 2556, "\u0120particularly": 2557, "\u00c3\u00bcnft": 2558, "\u0120month": 2559, "\u0120subject": 2560, "\u0120hope": 2561, "\u0120w\u00c3\u00a4re": 2562, "\u0120nat\u00c3\u00bcrlich": 2563, "\u0120liber": 2564, "\u0120investment": 2565, "atives": 2566, "\u0120conne": 2567, "indet": 2568, "\u0120sowohl": 2569, "\u0120schl": 2570, "opp": 2571, "\u0120show": 2572, "\u0120usa": 2573, "imate": 2574, "\u0120wahr": 2575, "h\u00c3\u00b6": 2576, "joy": 2577, "\u0120gemeinsamen": 2578, "\u0120complete": 2579, "yn": 2580, "\u012013": 2581, "rache": 2582, "\u0120around": 2583, "\u0120tem": 2584, "agt": 2585, "\u0120/": 2586, "\u0120standard": 2587, "\u0120mag": 2588, "\u012050": 2589, "ctions": 2590, "\u0120top": 2591, "icient": 2592, "\u0120relations": 2593, "\u0120k\u00c3\u00b6nnte": 2594, "\u0120enjoy": 2595, "erst": 2596, "kung": 2597, "oun": 2598, "neh": 2599, "\u0120pot": 2600, "\u0120au\u00c3\u0141erdem": 2601, "\u0120wee": 2602, "\u0120entwicklungs": 2603, "\u0120sever": 2604, "\u0120fern": 2605, "\u0120wish": 2606, "\u0120stabil": 2607, "\u0120ans": 2608, "\u0120doc": 2609, "\u0120exce": 2610, "ications": 2611, "\u0120gro\u00c3\u0141e": 2612, "\u0120\u00c3\u00a4nderungs": 2613, "\u0120beach": 2614, "\u0120team": 2615, "schein": 2616, "ars": 2617, "\u0120foreign": 2618, "under": 2619, "uring": 2620, "\u0120prot": 2621, "\u0120fisch": 2622, "uten": 2623, "pp": 2624, "\u0120gegen\u00c3\u00bcber": 2625, "\u0120activities": 2626, "\u0120gro\u00c3\u0141en": 2627, "verkehr": 2628, "\u0120n\u00c3\u00a4ch": 2629, "dien": 2630, "\u0120safety": 2631, "icle": 2632, "ury": 2633, "stehen": 2634, "\u0120projects": 2635, "w\u00c3\u00a4r": 2636, "\u0120uk": 2637, "ima": 2638, "ott": 2639, "uppe": 2640, "\u0120opin": 2641, "astru": 2642, "produ": 2643, "\u0120schluss": 2644, "\u0120benutz": 2645, "\u0120difficult": 2646, "\u0120inc": 2647, "\u0120standards": 2648, "\u0120flex": 2649, "\u0120abst": 2650, "\u0120offen": 2651, "ativen": 2652, "\u0120become": 2653, "\u0120derzeit": 2654, "\u0120ca": 2655, "isis": 2656, "\u0120among": 2657, "stru": 2658, "\u0120log": 2659, "\u0120she": 2660, "\u0120d\u00c3\u00bcr": 2661, "\u0120stim": 2662, "ller": 2663, "leistungen": 2664, "\u0120writ": 2665, "racht": 2666, "\u0120competition": 2667, "\u0120legislation": 2668, "\u0120implementation": 2669, "\u0120organisation": 2670, "\u0120grenz": 2671, "\u012017": 2672, "\u0120care": 2673, "fs": 2674, "\u0120extre": 2675, "kes": 2676, "\u0120milit": 2677, "ches": 2678, "\u0120unterst\u00c3\u00bctzen": 2679, "\u0120guaran": 2680, "\u0120davon": 2681, "ustain": 2682, "\u0120lux": 2683, "\u0120fortsch": 2684, "\u0120please": 2685, "\u0120mu\u00c3\u0141": 2686, "\u0120rolle": 2687, "\u0120always": 2688, "\u0120hervor": 2689, "\u0120funktion": 2690, "cle": 2691, "\u0120reason": 2692, "h\u00c3\u00b6rden": 2693, "ension": 2694, "\u0120wa": 2695, "\u0120profession": 2696, "\u0120commissions": 2697, "\u0120call": 2698, "by": 2699, "stan": 2700, "asing": 2701, "\u0120dig": 2702, "\u0120namen": 2703, "ifiz": 2704, "\u0120besonders": 2705, "\u0120review": 2706, "reif": 2707, "it\u00c3\u00a4ts": 2708, "xim": 2709, "nehmer": 2710, "\u0120verf\u00c3\u00bcgung": 2711, "\u0120staat": 2712, "\u0120once": 2713, "\u0120institutions": 2714, "bei": 2715, "ands": 2716, "zentr": 2717, "\u0120intro": 2718, "\u0120crisis": 2719, "weg": 2720, "\u0120hilfe": 2721, "\u0120wahl": 2722, "\u0120lat": 2723, "ey": 2724, "\u0120bill": 2725, "\u0120s\u00c3\u00bc": 2726, "\u0120ban": 2727, "\u0120break": 2728, "\u0120administr": 2729, "cially": 2730, "\u0120verhand": 2731, "....": 2732, "\u0120bestehen": 2733, "\u0120list": 2734, "bet": 2735, "\u0120employment": 2736, "\u0120bitte": 2737, "ints": 2738, "icial": 2739, "\u0120perform": 2740, "ification": 2741, "\u0120strength": 2742, "ichterst": 2743, "ished": 2744, "\u0120date": 2745, "\u0120introdu": 2746, "yl": 2747, "\u0120colle": 2748, "\u0120weise": 2749, "\u0120restaurant": 2750, "\u0120sustain": 2751, "wach": 2752, "ols": 2753, "\u0120towards": 2754, "rech": 2755, "\u0120express": 2756, "\u0120ren": 2757, "\u0120clos": 2758, "\u0120vote": 2759, "\u0120various": 2760, "\u0120mass": 2761, "\u0120erweit": 2762, "\u0120affairs": 2763, "\u0120experience": 2764, "\u0120zusammenhang": 2765, "\u0120staaten": 2766, "\u0120pr\u00c3\u00bc": 2767, "\u0120neu": 2768, "\u0120vill": 2769, "\u00c3\u00bcnst": 2770, "\u0120100": 2771, "\u0120south": 2772, "\u0120meiner": 2773, "\u0120erreichen": 2774, "recht": 2775, "\u0120economy": 2776, "\u0120erg": 2777, "\u0120near": 2778, "\u0120aktiv": 2779, "tr\u00c3\u00a4ge": 2780, "\u0120ess": 2781, "\u0120probleme": 2782, "\u0120old": 2783, "\u0120turn": 2784, "\u0120begr\u00c3\u00bc": 2785, "less": 2786, "\u0120verkehr": 2787, "\u0120gr\u00c3\u00bcn": 2788, "\u0120tas": 2789, "\u0120il": 2790, "\u0120several": 2791, "\u0120increase": 2792, "\u0120park": 2793, "\u0120deal": 2794, "\u0120beteil": 2795, "\u0120frauen": 2796, "\u0120peace": 2797, "bt": 2798, "ban": 2799, "\u0120dort": 2800, "\u0120ausschuss": 2801, "\u0120whole": 2802, "tion": 2803, "ipl": 2804, "\u0120create": 2805, "\u0120kind": 2806, "\u0120nationalen": 2807, "\u0120signific": 2808, "\u0120line": 2809, "\u0120emp": 2810, "ults": 2811, "\u0120run": 2812, "30": 2813, "\u0120typ": 2814, "oten": 2815, "iple": 2816, "\u0120\u00e2\u0124\u00ac": 2817, "r\u00c3\u00a4": 2818, "dings": 2819, "ique": 2820, "ober": 2821, "\u0120kons": 2822, "\u0120zwar": 2823, "\u0120umsetzung": 2824, "\u0120unt": 2825, "\u0120assoc": 2826, "\u0120hinaus": 2827, "\u0120genau": 2828, "cus": 2829, "pecially": 2830, "igungs": 2831, "\u0120macht": 2832, "ichtet": 2833, "\u0120ern": 2834, "\u0120thema": 2835, "\u0120pap": 2836, "\u0120solid": 2837, "ination": 2838, "\u0120jan": 2839, "ferenz": 2840, "\u012024": 2841, "\u0120close": 2842, "vour": 2843, "igent": 2844, "\u0120gent": 2845, "\u0120bezug": 2846, "ma\u00c3\u0141": 2847, "eu": 2848, "ably": 2849, "\u0120kinder": 2850, "\u0120equip": 2851, "\u0120frank": 2852, "\u0120fis": 2853, "\u0120presiden": 2854, "fehl": 2855, "\u0120kommen": 2856, "forderungen": 2857, "\u0120page": 2858, "50": 2859, "\u0120personen": 2860, "ites": 2861, "\u0120occ": 2862, "ican": 2863, "\u0120four": 2864, "\u0120event": 2865, "\u0120hatte": 2866, "\u0120wesent": 2867, "\u0120sea": 2868, "\u0120natur": 2869, "\u0120brit": 2870, "\u0120competit": 2871, "\u0120sett": 2872, "\u0120beginn": 2873, "\u0120verschiedenen": 2874, "\u0120fehl": 2875, "des": 2876, "\u0120policies": 2877, "\u0120democrat": 2878, "ksam": 2879, "\u0120especially": 2880, "\u0120alles": 2881, "roffen": 2882, "elves": 2883, "\u0120direkt": 2884, "isches": 2885, "\u00c3\u00bct": 2886, "\u0120sollen": 2887, "\u0120resources": 2888, "m\u00c3\u00a4\u00c3\u0141": 2889, "ined": 2890, "\u0120kollegen": 2891, "\u0120women": 2892, "ierungen": 2893, "\u0120kam": 2894, "\u0120recog": 2895, "\u0120artikel": 2896, "\u0120frien": 2897, "iken": 2898, "\u0120according": 2899, "\u0120verbraucher": 2900, "\u0120germany": 2901, "\u0120f\u00c3\u00bchren": 2902, "\u0120kre": 2903, "\u0120kap": 2904, "l\u00c3\u00a4ge": 2905, "\u0120technology": 2906, "\u0120hos": 2907, "rang": 2908, "ategor": 2909, "\u0120brauch": 2910, "\u0120environmental": 2911, "\u0120vielen": 2912, "\u0120wes": 2913, "bank": 2914, "\u0120weiterhin": 2915, "\u0120langu": 2916, "\u0120resolution": 2917, "wa": 2918, "\u0120kurz": 2919, "\u0120forward": 2920, "\u0120win": 2921, "\u0120children": 2922, "\u01202006": 2923, "f\u00c3\u00bchren": 2924, "\u0120zugang": 2925, "\u0120t\u00c3\u00a4t": 2926, "ived": 2927, "\u0120ja": 2928, "vorschriften": 2929, "fassung": 2930, "\u0120komp": 2931, "\u00c3\u0141e": 2932, "\u0120refer": 2933, "\u0120vier": 2934, "\u0120lad": 2935, "\u0120erste": 2936, "\u0120behand": 2937, "itution": 2938, "\u0120expl": 2939, "\u0120entsprechen": 2940, "\u0120proposals": 2941, "unehmen": 2942, "liegen": 2943, "\u0120matter": 2944, "\u0120making": 2945, "\u0120000": 2946, "\u0120provided": 2947, "\u0120strong": 2948, "\u0120thank": 2949, "\u0120bieten": 2950, "\u0120entfern": 2951, "\u0120due": 2952, "\u0120name": 2953, "\u0120proposed": 2954, "asse": 2955, "minister": 2956, "\u0120mrs": 2957, "\u0120yet": 2958, "erstell": 2959, "\u0120training": 2960, "\u0120meeting": 2961, "\u0120vide": 2962, "\u0120recomm": 2963, "\u0120absch": 2964, "\u0120feat": 2965, "\u0120zentr": 2966, "ides": 2967, "\u0120wachst": 2968, "\u0120beiden": 2969, "\u0120presidency": 2970, "\u0120infrastru": 2971, "\u0120\u00c3\u00bc": 2972, "\u0120haupt": 2973, "\u0120auswir": 2974, "\u0120recommend": 2975, "ators": 2976, "\u0120berichterst": 2977, "haus": 2978, "\u0120gesetz": 2979, "\u0120seite": 2980, "\u0120rapporte": 2981, "\u0120education": 2982, "19": 2983, "\u0120weltweit": 2984, "\u0120mom": 2985, "pfung": 2986, "\u0120automat": 2987, "bour": 2988, "ody": 2989, "\u0120society": 2990, "\u0120krit": 2991, "\u0120eigenen": 2992, "\u0120contra": 2993, "\u0120wohl": 2994, "\u0120fair": 2995, "\u0120gas": 2996, "\u0120stellt": 2997, "\u0120\u00c3\u00b6ffentlichen": 2998, "heb": 2999, "\u0120internal": 3000, "weisen": 3001, "\u0120cover": 3002, "\u0120optim": 3003, "\u0120seiten": 3004, "atte": 3005, "\u0120check": 3006, "\u00c3\u00a4nde": 3007, "\u0120effective": 3008, "\u0120schwier": 3009, "\u0120:": 3010, "\u0120him": 3011, "load": 3012, "\u0120field": 3013, "\u0120staff": 3014, "\u0120allerdings": 3015, "\u0120hard": 3016, "\u0120serious": 3017, "\u0120price": 3018, "\u00c3\u00bccksicht": 3019, "bereit": 3020, "\u0120fundament": 3021, "\u0120favour": 3022, "ifft": 3023, "\u0120zust\u00c3\u00a4nd": 3024, "\u0120k\u00c3\u00bc": 3025, "\u0120aufge": 3026, "\u0120nutzen": 3027, "mat": 3028, "w\u00c3\u00a4rt": 3029, "\u0120altern": 3030, "itions": 3031, "ograph": 3032, "\u0120enc": 3033, "ckt": 3034, "rift": 3035, "\u0120etwa": 3036, "oren": 3037, "met": 3038, "\u0120done": 3039, "\u0120focus": 3040, "letz": 3041, "\u0120contact": 3042, "\u0120regions": 3043, "ization": 3044, "\u0120total": 3045, "\u0120red": 3046, "uppen": 3047, "ained": 3048, "\u0120nov": 3049, "\u0120fully": 3050, "cel": 3051, "\u0120unterschied": 3052, "tember": 3053, "asst": 3054, "lie\u00c3\u0141en": 3055, "\u0120doub": 3056, "\u0120dev": 3057, "wand": 3058, "\u0120concerned": 3059, "\u0120significant": 3060, "itor": 3061, "\u0120t\u00c3\u00bcr": 3062, "the": 3063, "\u0120aufgrund": 3064, "\u0120gesellschaft": 3065, "\u0120infl": 3066, "\u0120ber\u00c3\u00bccksicht": 3067, "\u0120isra": 3068, "\u0120vereinbar": 3069, "oss": 3070, "\u0120subs": 3071, "\u0120test": 3072, "\u0120civil": 3073, "ieten": 3074, "\u0120fast": 3075, "idence": 3076, "\u0120head": 3077, "\u0120least": 3078, "\u0120speak": 3079, "\u0120mechan": 3080, "\u01202005": 3081, "sk": 3082, "\u0120binnen": 3083, "\u0120g\u00c3\u00a4": 3084, "ames": 3085, "verfahren": 3086, "\u0120arg": 3087, "\u0120mid": 3088, "\u0120welcome": 3089, "\u0120beaut": 3090, "term": 3091, "\u0120opinion": 3092, "hil": 3093, "bon": 3094, "gelegt": 3095, "\u0120zus\u00c3\u00a4tz": 3096, "\u0120schwer": 3097, "\u0120markets": 3098, "cher": 3099, "frist": 3100, "\u0120austr": 3101, "indung": 3102, "\u0120wider": 3103, "mos": 3104, "hes": 3105, "\u0120town": 3106, "\u0120joint": 3107, "\u0120hinsicht": 3108, "\u0120jahres": 3109, "\u0120phot": 3110, "stoff": 3111, "\u0120north": 3112, "row": 3113, "\u0120risk": 3114, "ots": 3115, "\u0120entscheiden": 3116, "\u0120preis": 3117, "inden": 3118, "\u0120industrie": 3119, "\u0120funds": 3120, "\u0120eg": 3121, "\u0120function": 3122, "\u01202004": 3123, "verb": 3124, "zeichnet": 3125, "\u0120detail": 3126, "\u0120efforts": 3127, "\u0120bem": 3128, "zogen": 3129, "\u0120attra": 3130, "\u0120never": 3131, "\u0120west": 3132, "weis": 3133, "\u0120wert": 3134, "\u0120sat": 3135, "ency": 3136, "igr": 3137, "\u0120blo": 3138, "\u0120gesch\u00c3\u00a4fts": 3139, "\u0120nachhalt": 3140, "\u0120198": 3141, "lig": 3142, "ias": 3143, "v\u00c3\u00b6l": 3144, "\u0120dest": 3145, "room": 3146, "\u0120itself": 3147, "aster": 3148, "\u0120verfahren": 3149, "\u0120pur": 3150, "\u0120application": 3151, "itionen": 3152, "\u0120until": 3153, "\u0120pan": 3154, "\u0120importance": 3155, "\u0120hinter": 3156, "\u0120landwirtschaft": 3157, "\u0120portug": 3158, "\u0120family": 3159, "\u0120hy": 3160, "\u0120steuer": 3161, "\u0120costs": 3162, "\u0120chr": 3163, "\u0120positive": 3164, "\u0120road": 3165, "ba": 3166, "\u0120procedure": 3167, "ending": 3168, "mail": 3169, "ote": 3170, "\u0120include": 3171, "\u0120harmon": 3172, "\u0120jap": 3173, "\u0120italien": 3174, "\u0120sep": 3175, "\u0120unab": 3176, "ival": 3177, "\u0120appropr": 3178, "most": 3179, "ove": 3180, "aufen": 3181, "seit": 3182, "ians": 3183, "arten": 3184, "hilfe": 3185, "\u0120unterst\u00c3\u00bctzt": 3186, "\u0120arbeiten": 3187, "\u0120comfort": 3188, "\u0120suff": 3189, "fa": 3190, "\u0120justice": 3191, "vention": 3192, "linien": 3193, "\u0120money": 3194, "\u0120customers": 3195, "let": 3196, "lemen": 3197, "genda": 3198, "\u0120gelegen": 3199, "liches": 3200, "\u0120often": 3201, "\u0120class": 3202, "\u0120range": 3203, "ality": 3204, "wh": 3205, "\u00c3\u00a4ren": 3206, "\u0120ebene": 3207, "sweise": 3208, "erk": 3209, "\u0120understand": 3210, "werk": 3211, "\u0120struktur": 3212, "\u0120link": 3213, "\u0120capital": 3214, "\u0120politische": 3215, "programm": 3216, "\u0120parties": 3217, "zug": 3218, "amt": 3219, "\u0120gemeinsame": 3220, "erien": 3221, "\u0120schnell": 3222, "\u0120vorgesch": 3223, "\u0120betrie": 3224, "\u0120jul": 3225, "ziehungen": 3226, "\u0120taking": 3227, "\u0120essential": 3228, "\u0120f\u00c3\u00b6rderung": 3229, "\u0120weniger": 3230, "iesen": 3231, "\u0120wirklich": 3232, "\u0120indem": 3233, "\u0120einges": 3234, "\u0120light": 3235, "\u0120erziel": 3236, "\u0120m\u00c3\u00a4r": 3237, "\u0120challen": 3238, "\u0120network": 3239, "\u0120bra": 3240, "\u0120m\u00c3\u00b6chten": 3241, "ufen": 3242, "\u0120grundlage": 3243, "\u0120having": 3244, "\u0120amb": 3245, "\u0120technical": 3246, "\u0120really": 3247, "\u0120kultur": 3248, "\u0120befindet": 3249, "\u0120angelegen": 3250, "\u0120vertra": 3251, "\u0120projekt": 3252, "\u0120bi": 3253, "\u0120h\u00c3\u00a4t": 3254, "\u0120innovation": 3255, "\u0120konn": 3256, "\u0120days": 3257, "cal": 3258, "arch": 3259, "\u0120value": 3260, "\u0120accept": 3261, "\u0120results": 3262, "schlie\u00c3\u0141lich": 3263, "\u0120millionen": 3264, "\u0120kor": 3265, "\u0120context": 3266, "\u0120exch": 3267, "\u0120ii": 3268, "l\u00c3\u00a4ndern": 3269, "ichen": 3270, "\u0120consult": 3271, "\u0120erne": 3272, "\u0120fr\u00c3\u00bch": 3273, "thing": 3274, "\u0120big": 3275, "\u0120freed": 3276, "\u0120kommt": 3277, "\u0120ce": 3278, "\u0120instrument": 3279, "ring": 3280, "\u0120assess": 3281, "\u0120gew\u00c3\u00a4hrle": 3282, "\u0120moment": 3283, "\u0120entsch": 3284, "\u0120leist": 3285, "\u0120continu": 3286, "\u0120deliver": 3287, "\u0120au\u00c3\u0141en": 3288, "\u0120programmes": 3289, "\u0120led": 3290, "\u0120luft": 3291, "\u0120mess": 3292, "\u0120extrem": 3293, "weil": 3294, "ided": 3295, "\u0120deutschland": 3296, "\u0120nu": 3297, "frage": 3298, "\u0120creat": 3299, "iers": 3300, "llent": 3301, "\u0120deleg": 3302, "annten": 3303, "\u0120provides": 3304, "\u01202003": 3305, "ash": 3306, "\u0120sug": 3307, "\u0120geld": 3308, "\u0120mean": 3309, "\u0120location": 3310, "\u0120europas": 3311, "\u0120wasser": 3312, "\u0120improve": 3313, "\u0120communication": 3314, "\u0120opportunity": 3315, "\u0120\u00c3\u00a4u\u00c3\u0141": 3316, "atory": 3317, "iner": 3318, "\u0120ziele": 3319, "\u0120neben": 3320, "ino": 3321, "\u0120groups": 3322, "\u0120nehmen": 3323, "\u0120strengthen": 3324, "thers": 3325, "though": 3326, "\u0120ged": 3327, "zeitig": 3328, "\u0120ort": 3329, "\u0120amendments": 3330, "\u0120darin": 3331, "rach": 3332, "\u0120unters": 3333, "ffung": 3334, "\u0120solidar": 3335, "\u0120content": 3336, "ured": 3337, "\u0120freedom": 3338, "\u0120gilt": 3339, "pekt": 3340, "zip": 3341, "voll": 3342, "fung": 3343, "\u0120article": 3344, "\u0120israel": 3345, "ements": 3346, "zustellen": 3347, "\u0120distrib": 3348, "\u0120besser": 3349, "\u0120something": 3350, "\u0120schlie\u00c3\u0141": 3351, "\u0120rei": 3352, "\u0120erh\u00c3\u00b6": 3353, "\u0120step": 3354, "\u0120camp": 3355, "\u0120bringen": 3356, "\u0120vors": 3357, "reicht": 3358, "onger": 3359, "\u0120erf\u00c3\u00bc": 3360, "\u0120zun": 3361, "ying": 3362, "\u0120kommun": 3363, "\u0120daran": 3364, "\u0120wissenschaft": 3365, "\u0120share": 3366, "l\u00c3\u00a4nder": 3367, "\u0120l\u00c3\u00b6sung": 3368, "\u0120above": 3369, "iere": 3370, "ugen": 3371, "\u0120force": 3372, "hod": 3373, "\u0120young": 3374, "cen": 3375, "\u0120cla": 3376, "ume": 3377, "--": 3378, "\u0120recent": 3379, "\u0120absol": 3380, "\u0120although": 3381, "ling": 3382, "tt": 3383, "\u0120nieder": 3384, "\u0120entfernt": 3385, "\u0120ju": 3386, "\u0120negotiations": 3387, "\u0120litt": 3388, "\u0120ebenfalls": 3389, "\u0120conclus": 3390, "\u0120digital": 3391, "unch": 3392, "\u0120rather": 3393, "\u0120pers\u00c3\u00b6n": 3394, "\u0120conference": 3395, "z\u00c3\u00bc": 3396, "\u0120mobil": 3397, "\u0120n\u00c3\u00a4": 3398, "\u0120elekt": 3399, "\u00c3\u00a4mpfung": 3400, "haltung": 3401, "\u0120excellent": 3402, "gesetzt": 3403, "\u0120berlin": 3404, "\u0120thus": 3405, "mut": 3406, "\u0120japan": 3407, "\u0120darf": 3408, "\u0120rechte": 3409, "\u0120increasing": 3410, "\u0120going": 3411, "mitglie": 3412, "\u0120anim": 3413, "arian": 3414, "\u0120responsibility": 3415, "\u0120ladies": 3416, "\u0120dist": 3417, "\u0120months": 3418, "racy": 3419, "\u0120constru": 3420, "\u0120viol": 3421, "\u0120zug": 3422, "ested": 3423, "\u0120komple": 3424, "baren": 3425, "\u00c3\u00a4chlich": 3426, "\u0120impact": 3427, "\u0120gere": 3428, "\u0120emission": 3429, "\u0120sour": 3430, "\u0120subst": 3431, "\u0120past": 3432, "\u0120times": 3433, "\u0120little": 3434, "\u0120f\u00c3\u00bcn": 3435, "\u0120fundamental": 3436, "ux": 3437, "\u00c3\u00b6ffent": 3438, "\u0120meisten": 3439, "\u012021": 3440, "\u0120gute": 3441, "\u0120currently": 3442, "\u0120potential": 3443, "of": 3444, "\u0120september": 3445, "fast": 3446, "\u0120empf": 3447, "ric": 3448, "\u0120dok": 3449, "\u0120oppos": 3450, "tag": 3451, "\u0120erfahr": 3452, "\u012022": 3453, "iled": 3454, "na": 3455, "\u0120cir": 3456, "\u0120minutes": 3457, "oting": 3458, "\u0120return": 3459, "\u0120+": 3460, "\u0120agenda": 3461, "\u0120eigent": 3462, "\u0120hor": 3463, "\u0120schaffen": 3464, "\u0120strategie": 3465, "igte": 3466, "\u0120oblig": 3467, "\u01202002": 3468, "\u0120gentlemen": 3469, "\u0120unabh\u00c3\u00a4ng": 3470, "\u0120entscheidung": 3471, "ully": 3472, "\u0120building": 3473, "\u0120remain": 3474, "hnt": 3475, "\u0120bau": 3476, "reiche": 3477, "\u00c3\u00a4chst": 3478, "\u0120requirements": 3479, "\u0120away": 3480, "\u0120vergangen": 3481, "\u0120feel": 3482, "\u0120carr": 3483, "\u0120anwendung": 3484, "\u0120green": 3485, "\u0120mut": 3486, "\u0120meinung": 3487, "\u0120engl": 3488, "\u0120finally": 3489, "sh": 3490, "side": 3491, "\u0120fal": 3492, "\u0120keep": 3493, "\u0120solution": 3494, "\u0120indep": 3495, "antrag": 3496, "\u0120vir": 3497, "\u0120prop": 3498, "\u0120handels": 3499, "istic": 3500, "\u012040": 3501, "\u0120schul": 3502, "\u0120might": 3503, "\u0120auswirkungen": 3504, "\u0120things": 3505, "\u0120cy": 3506, "\u0120principle": 3507, "\u0120gleichzeitig": 3508, "\u0120agree": 3509, "\u0120ka": 3510, "bare": 3511, "\u0120apply": 3512, "\u00c3\u00a4nger": 3513, "\u0120berichterstatter": 3514, "ufact": 3515, "\u0120anf": 3516, "uellen": 3517, "\u0120vorgeschlagen": 3518, "\u0120uhr": 3519, "auss": 3520, "\u0120along": 3521, "\u0120computer": 3522, "ishing": 3523, "\u0120via": 3524, "\u0120week": 3525, "\u0120note": 3526, "\u0120mention": 3527, "\u0120handel": 3528, "wendet": 3529, "\u0120gene": 3530, "\u0120greater": 3531, "\u0120bereichen": 3532, "\u0120h\u00c3\u00a4": 3533, "\u0120gerade": 3534, "mote": 3535, "\u0120ideal": 3536, "\u0120live": 3537, "\u0120seem": 3538, "\u0120s\u00c3\u00bcd": 3539, "\u0120rapporteur": 3540, "\u0120points": 3541, "\u0120int": 3542, "\u0120stock": 3543, "richtung": 3544, "unkte": 3545, "\u0120natural": 3546, "\u0120beh\u00c3\u00b6rden": 3547, "\u0120responsible": 3548, "\u0120required": 3549, "f\u00c3\u00a4higkeit": 3550, "einander": 3551, "\u0120works": 3552, "\u0120produkte": 3553, "\u0120others": 3554, "\u0120urs": 3555, "oper": 3556, "\u0120manufact": 3557, "\u0120media": 3558, "\u0120party": 3559, "\u0120janu": 3560, "\u0120method": 3561, "bel": 3562, "\u0120monitor": 3563, "techn": 3564, "gency": 3565, "anst": 3566, "\u0120solche": 3567, "ativ": 3568, "platz": 3569, "rechts": 3570, "\u0120relev": 3571, "ison": 3572, "ented": 3573, "\u0120bev\u00c3\u00b6l": 3574, "\u0120cross": 3575, "\u0120imm": 3576, "\u0120wirtschaftlichen": 3577, "ported": 3578, "\u0120developing": 3579, "\u0120option": 3580, "\u0120enterpr": 3581, "\u0120encour": 3582, "\u0120verbunden": 3583, "ledge": 3584, "\u0120flug": 3585, "inst": 3586, "\u0120gerichts": 3587, "\u0120bzw": 3588, "\u0120climate": 3589, "\u0120bekannt": 3590, "\u0120ver\u00c3\u00b6ffent": 3591, "\u0120jeden": 3592, "\u0120final": 3593, "istan": 3594, "andid": 3595, "\u0120flo": 3596, "lei": 3597, "\u0120wichtige": 3598, "\u0120bla": 3599, "llt": 3600, "\u0120dessen": 3601, "\u0120export": 3602, "\u0120reserv": 3603, "\u0120belg": 3604, "\u0120scho": 3605, "mitted": 3606, "\u0120etc": 3607, "\u0120minim": 3608, "\u0120extra": 3609, "\u0120questions": 3610, "\u0120sogar": 3611, "\u01202001": 3612, "teile": 3613, "\u0120lear": 3614, "fect": 3615, "utet": 3616, "\u0120office": 3617, "\u0120betrifft": 3618, "\u0120left": 3619, "\u0120cases": 3620, "\u0120leit": 3621, "\u0120rechn": 3622, "\u0120gemacht": 3623, "\u0120contract": 3624, "\u0120gran": 3625, "wahl": 3626, "\u0120cat": 3627, "\u0120interess": 3628, "eign": 3629, "\u0120prakt": 3630, "\u0120safe": 3631, "\u0120easy": 3632, "\u0120verbesserung": 3633, "\u0120effiz": 3634, "\u0120existing": 3635, "\u0120|": 3636, "mark": 3637, "\u0120unver": 3638, "\u0120empfehl": 3639, "\u0120airport": 3640, "\u0120spr": 3641, "\u0120kos": 3642, "\u00c3\u00bcssel": 3643, "\u0120regionen": 3644, "12": 3645, "\u0120jun": 3646, "\u0120schritt": 3647, "\u0120upd": 3648, "\u0120bul": 3649, "\u0120entschlie\u00c3\u0141": 3650, "nete": 3651, "\u0120illeg": 3652, "\u0120sound": 3653, "\u0120liberal": 3654, "part": 3655, "prochen": 3656, "fall": 3657, "\u0120ira": 3658, "\u0120sustainable": 3659, "aps": 3660, "\u0120ed": 3661, "\u0120angenommen": 3662, "\u0120protect": 3663, "\u0120mount": 3664, "\u0120low": 3665, "\u0120achieve": 3666, "\u0120madam": 3667, "\u0120attention": 3668, "\u0120jud": 3669, "gesehen": 3670, "\u0120quite": 3671, "\u0120farm": 3672, "half": 3673, "organ": 3674, "\u0120umfassen": 3675, "ception": 3676, "telle": 3677, "\u0120gegeben": 3678, "\u0120concerning": 3679, "ped": 3680, "\u0120purpos": 3681, "\u0120einigen": 3682, "\u0120binnenmarkt": 3683, "\u0120\u00c3\u00bcberein": 3684, "\u0120france": 3685, "\u0120n\u00c3\u00a4chsten": 3686, "aussch": 3687, "w\u00c3\u00bcr": 3688, "\u0120sozialen": 3689, "\u0120moder": 3690, "ka": 3691, "\u0120rund": 3692, "\u0120vorschl\u00c3\u00a4ge": 3693, "\u0120internationale": 3694, "agement": 3695, "\u0120called": 3696, "\u00c3\u00a4mlich": 3697, "umente": 3698, "\u0120w\u00c3\u00bcrden": 3699, "gegen": 3700, "\u0120spa": 3701, "isiert": 3702, "\u0120download": 3703, "leicht": 3704, "\u0120abgeord": 3705, "\u0120makes": 3706, "icherheit": 3707, "\u0120erk": 3708, "\u0120n\u00c3\u00a4mlich": 3709, "\u0120muse": 3710, "ellen": 3711, "\u0120g\u00c3\u00a4ste": 3712, "\u0120prevent": 3713, "\u0120verordnung": 3714, "\u0120stellung": 3715, "fully": 3716, "\u0120prices": 3717, "\u0120nord": 3718, "\u0120verst\u00c3\u00a4r": 3719, "\u0120qualit\u00c3\u00a4t": 3720, "\u0120sicherheits": 3721, "\u0120unserem": 3722, "achen": 3723, "reifen": 3724, "\u00c3\u0141t": 3725, "\u00c3\u00a4hlen": 3726, "\u0120klima": 3727, "\u0120verpflicht": 3728, "\u0120rate": 3729, "\u0120fight": 3730, "prozess": 3731, "\u0120objective": 3732, "\u0120aussp": 3733, "\u0120mem": 3734, "\u0120sure": 3735, "\u0120hinblick": 3736, "\u0120appropriate": 3737, "\u0120additional": 3738, "\u0120gemeinschafts": 3739, "\u0120parte": 3740, "\u0120november": 3741, "\u0120behalf": 3742, "\u0120intens": 3743, "ma\u00c3\u0141nahmen": 3744, "\u0120d\u00c3\u00bcrfen": 3745, "\u0120maint": 3746, "lt": 3747, "\u0120h\u00c3\u00b6ch": 3748, "\u0120gehen": 3749, "\u0120apr": 3750, "\u0120entire": 3751, "\u0120needed": 3752, "zimmer": 3753, "sehen": 3754, "\u0120trotz": 3755, "\u0120garant": 3756, "\u0120f\u00c3\u00bcnf": 3757, "\u0120ba": 3758, "\u0120wegen": 3759, "vo": 3760, "ada": 3761, "\u0120holid": 3762, "\u0120cultural": 3763, "\u0120assistance": 3764, "\u0120demand": 3765, "ennen": 3766, "leben": 3767, "\u0120pr\u00c3\u00a4sidentin": 3768, "\u0120aspect": 3769, "\u0120user": 3770, "\u0120demon": 3771, "\u0120maxim": 3772, "\u0120vollst\u00c3\u00a4nd": 3773, "kerung": 3774, "\u0120super": 3775, "fonds": 3776, "\u0120reihe": 3777, "ients": 3778, "\u0120objectives": 3779, "\u0120station": 3780, "lar": 3781, "\u0120clearly": 3782, "\u0120coordin": 3783, "ims": 3784, "\u0120analys": 3785, "\u0120table": 3786, "\u0120christ": 3787, "\u0120official": 3788, "\u0120verhandlungen": 3789, "ona": 3790, "\u0120card": 3791, "\u0120sei": 3792, "clud": 3793, "\u0120ord": 3794, "\u0120staats": 3795, "\u0120bedingungen": 3796, "\u0120dim": 3797, "ases": 3798, "\u0120solutions": 3799, "\u0120rela": 3800, "\u00c3\u00a4ss": 3801, "\u0120erzeug": 3802, "\u0120fischere": 3803, "ones": 3804, "ex": 3805, "\u0120deutlich": 3806, "\u0120flexib": 3807, "\u0120later": 3808, "\u0120charac": 3809, "iveness": 3810, "uren": 3811, "\u0120rein": 3812, "\u0120views": 3813, "\u0120operation": 3814, "st\u00c3\u00bcck": 3815, "\u0120einzelnen": 3816, "best": 3817, "\u0120nature": 3818, "\u0120k\u00c3\u00b6nnten": 3819, "\u0120target": 3820, "\u0120music": 3821, "ops": 3822, "setzen": 3823, "atten": 3824, "\u0120wachstum": 3825, "\u0120handelt": 3826, "za": 3827, "\u0120interesse": 3828, "\u0120subsid": 3829, "\u0120code": 3830, "\u0120weiteren": 3831, "\u0120punkt": 3832, "\u0120erforderlich": 3833, "\u0120kraft": 3834, "\u0120schwe": 3835, "\u0120miss": 3836, "\u0120agreements": 3837, "ana": 3838, "cent": 3839, "cks": 3840, "\u0120gesagt": 3841, "\u0120lok": 3842, "\u0120eth": 3843, "\u0120bath": 3844, "sa": 3845, "vere": 3846, "mitteln": 3847, "ziehen": 3848, "istet": 3849, "\u0120convention": 3850, "cies": 3851, "\u0120ansicht": 3852, "\u0120simply": 3853, "\u0120indeed": 3854, "ri": 3855, "\u0120across": 3856, "\u0120exchange": 3857, "\u0120bad": 3858, "\u0120bisher": 3859, "\u0120les": 3860, "system": 3861, "bahn": 3862, "\u0120breakfast": 3863, "\u0120sitz": 3864, "\u0120amendment": 3865, "\u0120\u00c3\u00bcbern": 3866, "\u0120nichts": 3867, "\u0120gree": 3868, "\u0120tw": 3869, "jahr": 3870, "alu": 3871, "\u0120)": 3872, "\u0120impos": 3873, "\u0120quick": 3874, "\u0120seinem": 3875, "\u0120informations": 3876, "\u0120\u00c3\u00bcberpr\u00c3\u00bc": 3877, "uelle": 3878, "rieben": 3879, "\u0120decisions": 3880, "\u0120beispielsweise": 3881, "\u0120atmos": 3882, "\u0120recogn": 3883, "\u0120cop": 3884, "\u0120gemeinsam": 3885, "quis": 3886, "\u0120news": 3887, "\u0120request": 3888, "\u0120ihm": 3889, "\u0120mic": 3890, "\u0120prep": 3891, "ton": 3892, "\u0120bevor": 3893, "\u0120links": 3894, "\u0120broad": 3895, "\u0120ebenso": 3896, "hem": 3897, "\u0120frieden": 3898, "\u0120events": 3899, "\u0120koordin": 3900, "\u0120unions": 3901, "ost": 3902, "\u0120beitrag": 3903, "\u0120buch": 3904, "alit\u00c3\u00a4t": 3905, "l\u00c3\u00a4ss": 3906, "\u0120fortschritte": 3907, "stadt": 3908, "\u00c3\u00bcsse": 3909, "\u0120concerns": 3910, "\u0120angem": 3911, "ender": 3912, "\u0120windows": 3913, "\u0120einsch": 3914, "formen": 3915, "\u0120workers": 3916, "\u0120abkommen": 3917, "\u0120democratic": 3918, "crip": 3919, "\u0120sil": 3920, "\u0120erheb": 3921, "\u0120beautif": 3922, "auft": 3923, "\u0120keinen": 3924, "ira": 3925, "hend": 3926, "\u0120vielleicht": 3927, "\u0120film": 3928, "\u0120sele": 3929, "\u0120konkre": 3930, "\u0120mand": 3931, "berg": 3932, "\u0120ther": 3933, "\u0120consequ": 3934, "fil": 3935, "\u0120changes": 3936, "\u0120guarantee": 3937, "\u0120tv": 3938, "\u0120involved": 3939, "\u0120ukra": 3940, "\u00c3\u00b6ff": 3941, "\u0120dienstleistungen": 3942, "\u0120meer": 3943, "\u0120franz": 3944, "alten": 3945, "tended": 3946, "\u0120k\u00c3\u00bcnft": 3947, "enzen": 3948, "11": 3949, "\u0120democracy": 3950, "\u0120grie": 3951, "\u0120agreed": 3952, "\u0120wei\u00c3\u0141": 3953, "word": 3954, "\u0120heart": 3955, "\u0120pf": 3956, "\u0120rea": 3957, "hilfen": 3958, "\u0120extern": 3959, "\u0120brauchen": 3960, "\u0120stor": 3961, "\u0120industrial": 3962, "iten": 3963, "\u0120jobs": 3964, "\u0120jeweil": 3965, "\u0120nam": 3966, "\u0120drit": 3967, "\u0120interests": 3968, "\u0120beziehungen": 3969, "ule": 3970, "\u0120menschenrechte": 3971, "zer": 3972, "arbeitung": 3973, "\u0120center": 3974, "\u0120bedeutet": 3975, "hib": 3976, "\u0120upon": 3977, "ielle": 3978, "\u0120previous": 3979, "ench": 3980, "nehm": 3981, "\u0120developed": 3982, "achten": 3983, "\u0120bur": 3984, "\u0120territ": 3985, "\u0120guest": 3986, "entwick": 3987, "teilen": 3988, "\u0120gebiet": 3989, "stellt": 3990, "\u0120arr": 3991, "kan": 3992, "\u0120longer": 3993, "icken": 3994, "\u0120gelten": 3995, "unternehmen": 3996, "\u0120april": 3997, "stra": 3998, "\u0120facilities": 3999, "\u0120netz": 4000, "\u0120erreicht": 4001, "\u0120besuch": 4002, "\u0120dut": 4003, "\u0120besten": 4004, "ceed": 4005, "igration": 4006, "\u0120anerk": 4007, "\u0120fail": 4008, "\u0120ihn": 4009, "\u0120iran": 4010, "\u0120wettbewerb": 4011, "pected": 4012, "\u0120ihres": 4013, "\u0120zentral": 4014, "\u0120demokratie": 4015, "\u0120ben\u00c3\u00b6t": 4016, "nt": 4017, "\u0120guid": 4018, "\u0120consumer": 4019, "bildung": 4020, "\u0120decl": 4021, "\u0120privat": 4022, "teilt": 4023, "ends": 4024, "eits": 4025, "\u0120dialogue": 4026, "\u0120verg": 4027, "arbeiten": 4028, "\u0120front": 4029, "\u0120kat": 4030, "\u0120soon": 4031, "\u0120consumers": 4032, "\u0120thems": 4033, "\u0120corre": 4034, "onen": 4035, "\u0120chem": 4036, "self": 4037, "\u0120gesamten": 4038, "\u0120themselves": 4039, "\u0120capac": 4040, "\u0120held": 4041, "\u0120vereinigten": 4042, "\u0120fisher": 4043, "\u012023": 4044, "\u0120document": 4045, "\u0120schrift": 4046, "\u0120zun\u00c3\u00a4chst": 4047, "ij": 4048, "dly": 4049, "\u0120record": 4050, "\u0120atmosph": 4051, "\u0120stability": 4052, "\u0120relig": 4053, "\u0120vertrags": 4054, "\u0120video": 4055, "\u0120directly": 4056, "kommens": 4057, "\u0120slow": 4058, "\u0120known": 4059, "\u0120guests": 4060, "\u0120ober": 4061, "\u0120club": 4062, "dr\u00c3\u00bcck": 4063, "\u0120obwohl": 4064, "\u0120einsatz": 4065, "\u0120glaube": 4066, "chter": 4067, "eg": 4068, "\u0120five": 4069, "\u0120divers": 4070, "\u0120hil": 4071, "\u0120don": 4072, "iellen": 4073, "\u0120f\u00c3\u00a4": 4074, "\u0120enlar": 4075, "\u0120forschung": 4076, "\u01201999": 4077, "\u0120ship": 4078, "gliche": 4079, "\u0120landes": 4080, "\u0120ground": 4081, "\u0120m\u00c3\u00b6glichkeiten": 4082, "deut": 4083, "\u0120benefit": 4084, "ette": 4085, "\u0120verfol": 4086, "\u0120angesichts": 4087, "\u0120agricultural": 4088, "\u0120perfect": 4089, "\u0120erm\u00c3\u00b6glich": 4090, "\u00c3\u00a4cht": 4091, "\u0120draft": 4092, "ynam": 4093, "\u0120status": 4094, "\u0120travel": 4095, "\u0120micro": 4096, "\u0120enthalten": 4097, "\u0120partnership": 4098, "\u0120normal": 4099, "\u0120though": 4100, "\u00c3\u00a4tzen": 4101, "\u0120aud": 4102, "\u0120dre": 4103, "\u0120ver\u00c3\u00a4nder": 4104, "\u0120side": 4105, "\u0120prec": 4106, "gern": 4107, "gesamt": 4108, "fragen": 4109, "\u0120republic": 4110, "aren": 4111, "13": 4112, "bil": 4113, "\u0120external": 4114, "\u0120language": 4115, "immen": 4116, "endent": 4117, "phas": 4118, "\u0120governments": 4119, "gesellschaft": 4120, "\u0120secre": 4121, "\u0120clean": 4122, "\u0120wenig": 4123, "\u0120knowledge": 4124, "\u0120early": 4125, "\u0120oft": 4126, "\u012027": 4127, "\u0120ergebnis": 4128, "jen": 4129, "\u0120commer": 4130, "\u0120emer": 4131, "erous": 4132, "\u0120history": 4133, "\u0120established": 4134, "\u0120b\u00c3\u00bc": 4135, "\u0120separ": 4136, "ables": 4137, "fel": 4138, "\u0120relax": 4139, "\u0120labour": 4140, "\u0120lib": 4141, "\u0120expect": 4142, "\u0120hinzu": 4143, "\u0120beautiful": 4144, "\u0120jour": 4145, "\u0120tit": 4146, "\u0120indic": 4147, "\u0120verantwortung": 4148, "\u0120fraktion": 4149, "\u0120notwendig": 4150, "\u0120scient": 4151, "\u0120french": 4152, "\u0120board": 4153, "\u0120vorschriften": 4154, "\u0120w\u00c3\u00bcn": 4155, "mals": 4156, "\u00c3\u00a4ter": 4157, "zif": 4158, "hlen": 4159, "\u00c3\u00a4che": 4160, "\u0120term": 4161, "anden": 4162, "\u0120wohn": 4163, "richtungen": 4164, "reib": 4165, "\u0120beruf": 4166, "see": 4167, "iance": 4168, "\u0120werde": 4169, "arf": 4170, "\u0120liegen": 4171, "\u0120alt": 4172, "\u0120culture": 4173, "\u0120compl": 4174, "gu": 4175, "gebung": 4176, "\u0120insgesamt": 4177, "\u0120humanit": 4178, "\u0120schaffung": 4179, "\u0120kun": 4180, "\u012060": 4181, "\u0120schlie\u00c3\u0141lich": 4182, "ppen": 4183, "\u0120caus": 4184, "\u0120darum": 4185, "key": 4186, "iffen": 4187, "m\u00c3\u00b6glichen": 4188, "ingt": 4189, "\u0120pak": 4190, "\u0120betreffen": 4191, "\u0120betroffen": 4192, "\u0120transfer": 4193, "\u0120chin": 4194, "\u0120jedes": 4195, "ionen": 4196, "60": 4197, "lling": 4198, "\u0120sorgen": 4199, "iste": 4200, "\u0120east": 4201, "\u0120professional": 4202, "\u0120lot": 4203, "neten": 4204, "\u0120verbessern": 4205, "\u0120eus": 4206, "\u0120fot": 4207, "nissen": 4208, "\u0120throughout": 4209, "tels": 4210, "ither": 4211, "\u0120space": 4212, "\u0120almost": 4213, "\u0120f\u00c3\u00b6rdern": 4214, "ctive": 4215, "\u0120registr": 4216, "\u0120wat": 4217, "\u0120dad": 4218, "\u0120cut": 4219, "\u0120kolleg": 4220, "atul": 4221, "ored": 4222, "\u0120rail": 4223, "\u0120active": 4224, "\u0120hinsichtlich": 4225, "\u0120abstimmung": 4226, "\u0120decided": 4227, "\u00c3\u00a4fte": 4228, "\u0120movement": 4229, "\u0120ol": 4230, "\u0120situated": 4231, "\u0120deter": 4232, "\u0120div": 4233, "\u0120differen": 4234, "\u0120words": 4235, "\u0120agriculture": 4236, "\u0120seen": 4237, "ony": 4238, "wur": 4239, "\u0120actions": 4240, "bedingungen": 4241, "cke": 4242, "\u0120took": 4243, "\u0120original": 4244, "\u0120wide": 4245, "\u0120kennt": 4246, "verst\u00c3\u00a4nd": 4247, "spolitik": 4248, "esten": 4249, "vol": 4250, "\u0120vorsitz": 4251, "\u0120character": 4252, "\u0120frankreich": 4253, "wegen": 4254, "\u0120bek\u00c3\u00a4mpfung": 4255, "\u0120umfang": 4256, "ikation": 4257, "\u0120treffen": 4258, "\u0120credit": 4259, "\u0120living": 4260, "\u0120bulgar": 4261, "\u0120vorauss": 4262, "fert": 4263, "\u0120gerichtshof": 4264, "\u0120sen": 4265, "\u0120immed": 4266, "\u0120demonstr": 4267, "\u0120verwendet": 4268, "\u0120promote": 4269, "\u0120aufmer": 4270, "\u0120priority": 4271, "\u0120enable": 4272, "anced": 4273, "play": 4274, "mp": 4275, "\u0120send": 4276, "\u0120related": 4277, "\u0120server": 4278, "\u0120halten": 4279, "\u0120package": 4280, "\u0120wto": 4281, "aking": 4282, "\u0120druck": 4283, "\u0120zudem": 4284, "\u0120goods": 4285, "\u0120ergebnisse": 4286, "\u0120either": 4287, "aring": 4288, "\u0120prozess": 4289, "\u0120gewalt": 4290, "\u0120findet": 4291, "\u0120herstell": 4292, "\u0120mann": 4293, "\u00c3\u00a4sent": 4294, "\u0120sn": 4295, "\u0120users": 4296, "32": 4297, "\u0120cru": 4298, "-,": 4299, "\u0120enough": 4300, "\u0120performance": 4301, "\u0120takes": 4302, "\u0120emphas": 4303, "\u0120prem": 4304, "\u0120draw": 4305, "\u0120neues": 4306, "\u0120created": 4307, "ilar": 4308, "\u0120ten": 4309, "\u0120prim": 4310, "\u0120erm\u00c3\u00b6glicht": 4311, "\u0120regarding": 4312, "j\u00c3\u00a4hr": 4313, "\u0120chance": 4314, "\u0120jede": 4315, "\u0120pages": 4316, "\u0120durchge": 4317, "\u0120jahrh": 4318, "ired": 4319, "\u0120effe": 4320, "fo": 4321, "\u0120investitionen": 4322, "\u0120analy": 4323, "haft": 4324, "oid": 4325, "\u0120paris": 4326, "\u0120richtung": 4327, "ires": 4328, "\u0120russia": 4329, "va": 4330, "\u0120k\u00c3\u00b6nig": 4331, "mbh": 4332, "\u0120commitment": 4333, "anze": 4334, "\u0120circ": 4335, "bor": 4336, "\u0120ip": 4337, "\u0120verschiedene": 4338, "vent": 4339, "lauf": 4340, "\u0120levels": 4341, "\u0120amount": 4342, "\u0120night": 4343, "\u0120dynam": 4344, "dom": 4345, "\u0120supply": 4346, "\u0120ill": 4347, "atic": 4348, "\u0120geh\u00c3\u00b6rt": 4349, "\u0120majority": 4350, "\u0120bleiben": 4351, "hren": 4352, "sc": 4353, "\u0120sem": 4354, "\u0120item": 4355, "iples": 4356, "\u0120dadurch": 4357, "hung": 4358, "\u0120fr\u00c3\u00bc": 4359, "\u0120roman": 4360, "\u0120kern": 4361, "ging": 4362, "\u0120mobile": 4363, "kom": 4364, "\u0120institutionen": 4365, "\u0120einheit": 4366, "\u0120ferner": 4367, "\u0120genehm": 4368, "\u0120pool": 4369, "\u0120mitarbeit": 4370, "\u0120hohen": 4371, "bu": 4372, "\u0120plann": 4373, "\u0120phil": 4374, "irm": 4375, "\u0120population": 4376, "\u0120designed": 4377, "\u0120diskuss": 4378, "\u0120six": 4379, "\u0120dokument": 4380, "\u0120vorgesehen": 4381, "\u0120sun": 4382, "\u00c3\u00bcrz": 4383, "\u0120\u00c3\u00a4nderungsan": 4384, "\u0120mitglieder": 4385, "ama": 4386, "\u00c3\u00a4lle": 4387, "\u0120restaurants": 4388, "\u0120vict": 4389, "istischen": 4390, "\u0120basic": 4391, "\u0120click": 4392, "\u0120lack": 4393, "\u0120gmbh": 4394, "\u0120welcom": 4395, "yle": 4396, "\u0120gem\u00c3\u00a4\u00c3\u0141": 4397, "\u0120van": 4398, "\u0120profit": 4399, "\u0120kontrolle": 4400, "vert": 4401, "\u0120aufmerksam": 4402, "\u0120gegenw\u00c3\u00a4rt": 4403, "\u0120bev\u00c3\u00b6lkerung": 4404, "\u0120outside": 4405, "\u0120propert": 4406, "\u0120angelegenheiten": 4407, "\u0120funding": 4408, "ateral": 4409, "\u0120practice": 4410, "\u0120structural": 4411, "\u00c3\u00a4u": 4412, "\u0120higher": 4413, "aging": 4414, "\u0120increased": 4415, "\u0120confl": 4416, "\u0120register": 4417, "do": 4418, "reiben": 4419, "\u0120vorbereit": 4420, "\u0120secret": 4421, "\u0120included": 4422, "\u0120wichtigsten": 4423, "\u0120relevant": 4424, "\u00c3\u00bclt": 4425, "\u0120197": 4426, "\u0120debatte": 4427, "\u0120fig": 4428, "iting": 4429, "\u0120pict": 4430, "\u0120ago": 4431, "di": 4432, "\u0120transl": 4433, "\u0120las": 4434, "\u0120kunst": 4435, "\u0120neuer": 4436, "spe": 4437, "\u0120prepar": 4438, "\u0120hon": 4439, "uses": 4440, "altungs": 4441, "\u0120akzept": 4442, "gement": 4443, "\u0120angemessen": 4444, "\u0120grunds": 4445, "\u0120err": 4446, "\u0120wort": 4447, "griff": 4448, "\u0120f\u00c3\u00bc": 4449, "\u0120exclus": 4450, "\u0120receive": 4451, "\u00c3\u00a4gt": 4452, "\u0120ausdruck": 4453, "lang": 4454, "\u0120mode": 4455, "pl\u00c3\u00a4tze": 4456, "clear": 4457, "\u0120comes": 4458, "ios": 4459, "\u0120file": 4460, "\u0120besch\u00c3\u00a4ftigung": 4461, "\u0120tats\u00c3\u00a4chlich": 4462, "\u0120hoffe": 4463, "\u0120republik": 4464, "\u0120anti": 4465, "ean": 4466, "\u0120aug": 4467, "undes": 4468, "\u0120principles": 4469, "\u0120raum": 4470, "\u0120type": 4471, "trie": 4472, "\u0120interessen": 4473, "\u0120*": 4474, "\u0120opportunities": 4475, "\u0120beha": 4476, "\u0120zeigt": 4477, "iated": 4478, "\u0120sam": 4479, "\u0120schein": 4480, "\u0120job": 4481, "\u0120tages": 4482, "\u0120stress": 4483, "nit": 4484, "\u0120pen": 4485, "kei": 4486, "\u0120eib": 4487, "\u0120provisions": 4488, "\u0120similar": 4489, "ausch": 4490, "spruch": 4491, "\u0120capacity": 4492, "llig": 4493, "ktiv": 4494, "\u0120kleinen": 4495, "\u0120instruments": 4496, "\u0120infrastruct": 4497, "zeigt": 4498, "ences": 4499, "\u0120reports": 4500, "ering": 4501, "\u0120century": 4502, "\u0120koh": 4503, "\u0120verhin": 4504, "\u0120vergleich": 4505, "\u0120evalu": 4506, "\u0120everything": 4507, "besch": 4508, "\u0120sektor": 4509, "\u0120lag": 4510, "\u0120mensch": 4511, "icien": 4512, "\u0120launch": 4513, "\u0120gal": 4514, "iedr": 4515, "\u0120lange": 4516, "\u0120half": 4517, "fu": 4518, "yp": 4519, "\u0120f\u00c3\u00bchrt": 4520, "ritts": 4521, "\u0120details": 4522, "\u0120musik": 4523, "\u0120gef\u00c3\u00a4hr": 4524, "ense": 4525, "\u0120familien": 4526, "\u0120urspr": 4527, "\u0120engine": 4528, "\u0120ang": 4529, "hnen": 4530, "barkeit": 4531, "crib": 4532, "\u0120king": 4533, "\u0120verab": 4534, "\u0120happen": 4535, "ather": 4536, "stre": 4537, "\u0120dez": 4538, "\u0120suppl": 4539, "\u0120procedures": 4540, "mm": 4541, "erseits": 4542, "bru": 4543, "\u0120wirtschaftliche": 4544, "\u0120themen": 4545, "rank": 4546, "isieren": 4547, "dienst": 4548, "folger": 4549, "\u0120verring": 4550, "\u0120true": 4551, "\u0120besitz": 4552, "\u0120limited": 4553, "\u0120model": 4554, "\u0120extremely": 4555, "\u0120proper": 4556, "\u0120ut": 4557, "\u0120sprechen": 4558, "\u0120pr\u00c3\u00a4": 4559, "\u0120voted": 4560, "\u0120gesundheits": 4561, "dle": 4562, "\u0120rule": 4563, "\u0120bestimmungen": 4564, "hens": 4565, "\u0120reduce": 4566, "w\u00c3\u00bcrd": 4567, "wal": 4568, "\u0120face": 4569, "\u0120bon": 4570, "\u0120extens": 4571, "\u0120mehrere": 4572, "\u0120wichtigen": 4573, "agen": 4574, "\u0120efficient": 4575, "aged": 4576, "\u0120suggest": 4577, "rupt": 4578, "geschlossen": 4579, "\u0120aussprache": 4580, "\u0120thanks": 4581, "\u0120beh": 4582, "jenigen": 4583, "\u0120investig": 4584, "\u0120equipment": 4585, "roat": 4586, "serv": 4587, "heim": 4588, "\u0120entwickelt": 4589, "eless": 4590, "sterreich": 4591, "\u0120dro": 4592, "industr": 4593, "\u0120veh": 4594, "\u0120oil": 4595, "\u0120nutzung": 4596, "val": 4597, "\u0120allgemeinen": 4598, "\u0120t\u00c3\u00bcrkei": 4599, "\u0120features": 4600, "\u0120falls": 4601, "\u0120emissions": 4602, "\u0120herren": 4603, "\u0120treatment": 4604, "\u0120proz": 4605, "\u0120hung": 4606, "\u0120motor": 4607, "\u0120sag": 4608, "icles": 4609, "strateg": 4610, "\u0120gew\u00c3\u00a4hrleisten": 4611, "\u0120tim": 4612, "\u0120coll": 4613, "abon": 4614, "\u0120booking": 4615, "\u0120satis": 4616, "\u0120leading": 4617, "\u0120beein": 4618, "\u0120veranst": 4619, "treten": 4620, "ourcen": 4621, "\u0120kontakt": 4622, "\u0120asyl": 4623, "mented": 4624, "iko": 4625, "\u00c3\u00a4nden": 4626, "\u0120garden": 4627, "usst": 4628, "\u0120parts": 4629, "\u0120leaders": 4630, "urop": 4631, "\u0120verf": 4632, "\u0120\u00c3\u00bcbr": 4633, "\u0120erw\u00c3\u00a4": 4634, "\u0120erm\u00c3\u00b6glichen": 4635, "\u0120mio": 4636, "\u0120below": 4637, "\u012080": 4638, "kraft": 4639, "kar": 4640, "\u0120zivil": 4641, "\u0120desp": 4642, "ley": 4643, "\u0120portugal": 4644, "folge": 4645, "\u0120soziale": 4646, "\u0120includes": 4647, "ping": 4648, "\u0120ham": 4649, "\u0120paper": 4650, "15": 4651, "\u0120stage": 4652, "ommer": 4653, "\u0120gruppe": 4654, "teid": 4655, "ental": 4656, "\u0120enth\u00c3\u00a4lt": 4657, "\u0120tod": 4658, "\u0120ausgest": 4659, "\u0120island": 4660, "ou": 4661, "iterran": 4662, "\u0120gab": 4663, "\u0120military": 4664, "\u0120\u00c3\u00b6ffentliche": 4665, "\u0120spielen": 4666, "mitglied": 4667, "\u0120anb": 4668, "\u0120helfen": 4669, "frei": 4670, "\u0120wobei": 4671, "\u0120ara": 4672, "\u0120kop": 4673, "ommod": 4674, "\u0120st\u00c3\u00a4nd": 4675, "just": 4676, "\u0120parliaments": 4677, "\u0120fach": 4678, "\u0120liste": 4679, "\u0120l\u00c3\u00b6": 4680, "ption": 4681, "\u0120n\u00c3\u00a4he": 4682, "\u0120exec": 4683, "\u0120creation": 4684, "\u0120surround": 4685, "\u0120organisations": 4686, "ilities": 4687, "mission": 4688, "\u0120sch\u00c3\u00b6n": 4689, "\u0120hatten": 4690, "\u0120somit": 4691, "zunehmen": 4692, "unge": 4693, "\u0120verf\u00c3\u00bcgt": 4694, "iens": 4695, "\u0120lisbon": 4696, "ennung": 4697, "\u00c3\u00a4hlt": 4698, "\u0120unique": 4699, "\u0120spain": 4700, "\u0120sp\u00c3\u00a4ter": 4701, "\u0120platz": 4702, "\u0120volks": 4703, "\u0120lond": 4704, "\u0120antwort": 4705, "\u0120m\u00c3\u00bc": 4706, "\u0120achieved": 4707, "abkommen": 4708, "legung": 4709, "\u0120italy": 4710, "\u0120rechtsvorschriften": 4711, "\u0120best\u00c3\u00a4t": 4712, "more": 4713, "\u0120tragen": 4714, "\u0120jugend": 4715, "\u0120accommod": 4716, "\u0120ukraine": 4717, "\u0120alternative": 4718, "ologie": 4719, "\u0120ansch": 4720, "\u0120association": 4721, "\u0120search": 4722, "wide": 4723, "\u0120stop": 4724, "\u0120verwendung": 4725, "\u0120actually": 4726, "\u0120liss": 4727, "\u0120blick": 4728, "\u0120generation": 4729, "\u0120sicht": 4730, "\u0120konzentr": 4731, "\u012028": 4732, "\u0120aufgabe": 4733, "\u0120holiday": 4734, "uell": 4735, "\u00c3\u00bchungen": 4736, "\u0120looking": 4737, "\u0120erweiterung": 4738, "\u0120niederl": 4739, "\u0120advant": 4740, "\u0120undert": 4741, "\u0120response": 4742, "ube": 4743, "\u0120providing": 4744, "eden": 4745, "anten": 4746, "\u0120traff": 4747, "\u0120presented": 4748, "\u0120h\u00c3\u00a4tte": 4749, "nitt": 4750, "uted": 4751, "undert": 4752, "stances": 4753, "cer": 4754, "\u0120june": 4755, "tes": 4756, "old": 4757, "\u0120anw": 4758, "\u0120body": 4759, "\u0120age": 4760, "iele": 4761, "\u0120fit": 4762, "arbeitet": 4763, "\u0120contribution": 4764, "mann": 4765, "wan": 4766, "\u0120krise": 4767, "\u0120fu": 4768, "\u0120klein": 4769, "\u0120pet": 4770, "\u0120innovative": 4771, "\u0120einf\u00c3\u00bchrung": 4772, "\u0120applications": 4773, "\u0120constitution": 4774, "\u0120langfrist": 4775, "\u0120former": 4776, "\u0120tool": 4777, "\u0120febru": 4778, "\u0120recently": 4779, "\u0120happ": 4780, "\u0120que": 4781, "\u0120idea": 4782, "\u0120carried": 4783, "\u0120einschlie\u00c3\u0141lich": 4784, "\u0120western": 4785, "\u0120golf": 4786, "\u0120vern": 4787, "\u0120geschichte": 4788, "\u0120schem": 4789, "\u0120customer": 4790, "\u0120lissabon": 4791, "halte": 4792, "\u0120\u00c3\u00bcberwach": 4793, "\u0120tatsache": 4794, "\u0120franz\u00c3\u00b6s": 4795, "\u0120complex": 4796, "ark": 4797, "ester": 4798, "\u0120ton": 4799, "\u0120konferenz": 4800, "pr\u00c3\u00a4sident": 4801, "\u0120traditional": 4802, "\u0120beitragen": 4803, "attet": 4804, "\u0120erkl\u00c3\u00a4rung": 4805, "cep": 4806, "\u0120medium": 4807, "\u0120dritt": 4808, "fordert": 4809, "\u0120received": 4810, "ww": 4811, "\u0120untersuch": 4812, "\u0120setzen": 4813, "wertung": 4814, "\u0120purch": 4815, "artet": 4816, "\u0120forschungs": 4817, "\u0120mitt": 4818, "\u0120v\u00c3\u00b6": 4819, "buch": 4820, "\u0120bestimmte": 4821, "\u0120projekte": 4822, "\u0120game": 4823, "\u0120statist": 4824, "\u0120kontroll": 4825, "\u0120passen": 4826, "gruppe": 4827, "\u0120zweiten": 4828, "affen": 4829, "\u0120adap": 4830, "\u0120summit": 4831, "\u0120rural": 4832, "\u00c3\u00a4sst": 4833, "\u0120doing": 4834, "\u0120allows": 4835, "\u0120hei\u00c3\u0141": 4836, "ufig": 4837, "\u0120neigh": 4838, "\u0120jedem": 4839, "\u0120los": 4840, "\u0120monitoring": 4841, "\u0120gestellt": 4842, "\u0120effects": 4843, "\u0120school": 4844, "\u0120st\u00c3\u00a4d": 4845, "\u0120image": 4846, "\u0120leider": 4847, "\u0120\u00c3\u00b6sterreich": 4848, "ovo": 4849, "\u0120series": 4850, "\u0120schle": 4851, "employ": 4852, "\u0120criter": 4853, "\u0120turkey": 4854, "pression": 4855, "ya": 4856, "\u0120verteid": 4857, "\u0120american": 4858, "keiten": 4859, "\u0120enlargement": 4860, "\u0120verpflich": 4861, "etzung": 4862, "\u0120deta": 4863, "\u0120luxem": 4864, "stead": 4865, "\u0120corpor": 4866, "ances": 4867, "\u0120maintain": 4868, "\u0120nuclear": 4869, "\u0120warum": 4870, "cement": 4871, "\u0120heut": 4872, "\u0120move": 4873, "atur": 4874, "\u0120rot": 4875, "\u0120bleibt": 4876, "urt": 4877, "hoben": 4878, "\u0120auffassung": 4879, "\u0120regierungen": 4880, "\u0120zweif": 4881, "\u0120improvement": 4882, "\u0120values": 4883, "\u0120certainly": 4884, "\u0120waste": 4885, "\u0120reasons": 4886, "\u0120contain": 4887, "\u0120billion": 4888, "\u0120damen": 4889, "\u0120erlaub": 4890, "cker": 4891, "\u0120element": 4892, "\u0120kil": 4893, "zeugen": 4894, "eff": 4895, "ausschuss": 4896, "pfen": 4897, "\u0120london": 4898, "40": 4899, "olution": 4900, "mitt": 4901, "ills": 4902, "\u0120genie": 4903, "denken": 4904, "\u0120nice": 4905, "ikanischen": 4906, "\u0120dimension": 4907, "fluss": 4908, "proje": 4909, "\u0120gr\u00c3\u00bcnden": 4910, "\u0120answer": 4911, "\u0120beschr\u00c3\u00a4n": 4912, "\u0120hohe": 4913, "\u0120comfortable": 4914, "rechend": 4915, "\u0120bildung": 4916, "\u0120commercial": 4917, "\u0120anzu": 4918, "\u0120konnte": 4919, "35": 4920, "\u0120sex": 4921, "haps": 4922, "\u0120tex": 4923, "\u01201998": 4924, "\u0120connection": 4925, "works": 4926, "da": 4927, "\u0120balance": 4928, "\u0120kleine": 4929, "\u0120ress": 4930, "\u0120gesamt": 4931, "\u0120considered": 4932, "\u0120aspects": 4933, "\u0120cast": 4934, "\u0120choice": 4935, "\u0120verkehrs": 4936, "\u0120nahe": 4937, "xis": 4938, "\u0120hours": 4939, "\u0120carry": 4940, "\u0120apartments": 4941, "\u0120speed": 4942, "\u0120flugh": 4943, "\u0120herz": 4944, "haben": 4945, "\u0120condu": 4946, "otion": 4947, "\u0120mission": 4948, "iete": 4949, "organisation": 4950, "sicherheit": 4951, "wurf": 4952, "\u0120compre": 4953, "\u0120grundlegen": 4954, "\u0120sent": 4955, "\u0120avoid": 4956, "\u0120rich": 4957, "\u0120mitteilung": 4958, "\u0120unternehmens": 4959, "\u0120h\u00c3\u00b6he": 4960, "\u0120instead": 4961, "\u0120haup": 4962, "ande": 4963, "\u0120ernst": 4964, "\u0120successful": 4965, "oking": 4966, "ips": 4967, "atell": 4968, "\u0120submitted": 4969, "mor": 4970, "\u0120electron": 4971, "uern": 4972, "\u0120j\u00c3\u00bcn": 4973, "\u0120word": 4974, "\u0120perhaps": 4975, "\u0120august": 4976, "\u0120setting": 4977, "bung": 4978, "spr\u00c3\u00a4sident": 4979, "onom": 4980, "\u0120lay": 4981, "iciency": 4982, "\u0120challenges": 4983, "usion": 4984, "\u0120rene": 4985, "mehr": 4986, "\u0120double": 4987, "\u0120anfang": 4988, "\u0120barcel": 4989, "\u0120poor": 4990, "\u0120enor": 4991, "\u0120juni": 4992, "abel": 4993, "\u0120kla": 4994, "\u0120ms": 4995, "\u0120regeln": 4996, "\u0120built": 4997, "\u0120termin": 4998, "\u0120sectors": 4999, "\u0120annual": 5000, "\u0120danken": 5001, "\u0120finance": 5002, "gl": 5003, "\u0120europes": 5004, "ws": 5005, "\u0120nations": 5006, "\u0120ep": 5007, "ological": 5008, "\u0120self": 5009, "\u0120lic": 5010, "\u0120acht": 5011, "worten": 5012, "\u0120reached": 5013, "\u0120einger": 5014, "fahrt": 5015, "\u0120december": 5016, "\u0120bem\u00c3\u00bchungen": 5017, "\u0120host": 5018, "\u0120dring": 5019, "rachen": 5020, "\u0120try": 5021, "\u0120friendly": 5022, "\u0120\u00c3\u00a4nderungsantrag": 5023, "\u0120spir": 5024, "pers": 5025, "\u0120added": 5026, "\u0120walk": 5027, "\u0120mac": 5028, "elines": 5029, "\u0120despite": 5030, "pan": 5031, "industrie": 5032, "\u0120thing": 5033, "\u0120overall": 5034, "\u0120conclusions": 5035, "soft": 5036, "\u0120sinn": 5037, "\u0120depart": 5038, "\u0120morgen": 5039, "\u0120nothing": 5040, "\u0120collect": 5041, "\u0120ausschusses": 5042, "lant": 5043, "\u0120\u00c3\u00b6ffentlichkeit": 5044, "ierter": 5045, "\u0120spezie": 5046, "auen": 5047, "\u0120infrastructure": 5048, "\u0120ministers": 5049, "sto": 5050, "polit": 5051, "\u0120shows": 5052, "\u0120bestimmten": 5053, "\u0120benefits": 5054, "\u00c3\u00bctzen": 5055, "bek": 5056, "\u0120entde": 5057, "\u0120anp": 5058, "zuf\u00c3\u00bchren": 5059, "\u0120elektron": 5060, "\u0120gelegenheit": 5061, "\u0120remains": 5062, "\u0120notwendigkeit": 5063, "\u0120cam": 5064, "\u0120colleag": 5065, "dis": 5066, "\u0120fisheries": 5067, "lassen": 5068, "\u0120highl": 5069, "ology": 5070, "\u0120mehrheit": 5071, "ano": 5072, "\u0120technologies": 5073, "zub": 5074, "\u0120march": 5075, "acy": 5076, "\u0120winter": 5077, "\u0120erinn": 5078, "itation": 5079, "\u0120purs": 5080, "\u0120email": 5081, "\u012029": 5082, "face": 5083, "erweise": 5084, "\u0120middle": 5085, "\u0120lik": 5086, "\u0120befinden": 5087, "\u0120m\u00c3\u00a4n": 5088, "\u0120independent": 5089, "\u0120distribution": 5090, "\u0120aware": 5091, "\u0120bundes": 5092, "\u0120attack": 5093, "\u0120phys": 5094, "\u0120\u00c3\u00a4nderungen": 5095, "erve": 5096, "\u0120zul": 5097, "fun": 5098, "\u0120denke": 5099, "\u0120russland": 5100, "\u0120regular": 5101, "\u0120europ\u00c3\u00a4ischer": 5102, "\u0120slo": 5103, "\u0120kampf": 5104, "\u00c3\u00a4um": 5105, "\u0120lebensmittel": 5106, "vertrag": 5107, "bre": 5108, "\u0120feder": 5109, "\u0120liefer": 5110, "orgung": 5111, "ikt": 5112, "yr": 5113, "\u0120latest": 5114, "\u0120mentioned": 5115, "\u0120bran": 5116, "\u0120aspe": 5117, "ico": 5118, "auer": 5119, "\u0120simple": 5120, "\u0120legislative": 5121, "\u0120\u00c3\u00bcberzeug": 5122, "\u0120materials": 5123, "olid": 5124, "\u0120matters": 5125, "\u0120becom": 5126, "\u0120absolute": 5127, "\u0120oct": 5128, "\u0120kolleginnen": 5129, "\u0120konfl": 5130, "sse": 5131, "\u0120measure": 5132, "\u0120banks": 5133, "\u0120famous": 5134, "\u0120vielf": 5135, "annte": 5136, "\u0120standpunkt": 5137, "\u0120j\u00c3\u00bcng": 5138, "\u0120500": 5139, "zone": 5140, "\u0120asked": 5141, "\u00c3\u00a4ngen": 5142, "\u0120mitgliedstaat": 5143, "\u0120\u00c3\u00a4hn": 5144, "\u0120verbindung": 5145, "\u0120milit\u00c3\u00a4r": 5146, "\u0120vertreter": 5147, "\u0120discover": 5148, "ounts": 5149, "\u0120fix": 5150, "nal": 5151, "\u0120kulture": 5152, "\u0120abgeordneten": 5153, "\u0120ganzen": 5154, "\u0120apartment": 5155, "\u0120kir": 5156, "\u0120quickly": 5157, "\u0120\u00c3\u00bcbrigen": 5158, "\u0120gd": 5159, "\u0120minuten": 5160, "\u0120obt": 5161, "bus": 5162, "\u0120sus": 5163, "\u0120fl\u00c3\u00bc": 5164, "\u0120l\u00c3\u00a4nd": 5165, "\u0120agrar": 5166, "rict": 5167, "\u0120medien": 5168, "\u0120street": 5169, "\u0120aktions": 5170, "\u0120geh\u00c3\u00b6ren": 5171, "\u0120task": 5172, "\u0120delegation": 5173, "\u0120bemer": 5174, "inner": 5175, "\u0120schlussel": 5176, "\u00c3\u00a4us": 5177, "\u0120anwend": 5178, "ja": 5179, "\u0120pc": 5180, "\u0120zeitpunkt": 5181, "\u0120\u00c3\u00a4nderungsantr\u00c3\u00a4ge": 5182, "okoll": 5183, "\u0120erster": 5184, "handen": 5185, "\u0120substant": 5186, "\u0120integrated": 5187, "\u0120beihilfen": 5188, "\u0120une": 5189, "\u0120contains": 5190, "\u0120comprehens": 5191, "\u0120zeigen": 5192, "\u01201997": 5193, "\u0120dezember": 5194, "ernen": 5195, "\u0120gerecht": 5196, "\u0120bio": 5197, "\u0120mediterran": 5198, "\u0120restrict": 5199, "\u0120perman": 5200, "\u0120round": 5201, "\u0120verd": 5202, "\u0120warm": 5203, "esh": 5204, "\u0120white": 5205, "\u0120anstr": 5206, "\u0120durchf\u00c3\u00bchrung": 5207, "\u0120terra": 5208, "ille": 5209, "\u0120completely": 5210, "sm": 5211, "\u0120announ": 5212, "finden": 5213, "griffen": 5214, "\u0120beginning": 5215, "\u0120phase": 5216, "\u0120choose": 5217, "astrop": 5218, "put": 5219, "fortun": 5220, "\u0120unseres": 5221, "\u0120persons": 5222, "schlie\u00c3\u0141end": 5223, "\u0120fehler": 5224, "tees": 5225, "fordern": 5226, "\u0120vertreten": 5227, "\u0120steps": 5228, "\u0120contribute": 5229, "\u0120tat": 5230, "estens": 5231, "kontro": 5232, "\u0120ers": 5233, "\u0120highly": 5234, "\u00c3\u00b6hn": 5235, "\u0120experien": 5236, "\u0120regards": 5237, "ienz": 5238, "lam": 5239, "\u0120minimum": 5240, "\u0120fishing": 5241, "\u0120possibility": 5242, "\u0120zentrum": 5243, "ball": 5244, "\u0120cohes": 5245, "\u0120regulations": 5246, "schw": 5247, "\u00c3\u00a4chen": 5248, "\u0120gesamte": 5249, "\u0120award": 5250, "\u0120afg": 5251, "\u0120sofort": 5252, "f\u00c3\u00a4": 5253, "\u0120augen": 5254, "\u0120english": 5255, "nungs": 5256, "kosten": 5257, "\u0120kan": 5258, "ari": 5259, "\u0120syn": 5260, "\u0120stelle": 5261, "rahmen": 5262, "\u0120congr": 5263, "\u0120vorhanden": 5264, "\u0120allein": 5265, "\u0120entwickeln": 5266, "leitet": 5267, "\u0120correct": 5268, "\u0120kommissions": 5269, "\u0120unfortun": 5270, "\u0120verz": 5271, "vis": 5272, "pres": 5273, "ros": 5274, "\u0120sau": 5275, "\u0120freund": 5276, "ini": 5277, "\u0120candid": 5278, "\u0120bewer": 5279, "\u0120popular": 5280, "struktur": 5281, "\u0120businesses": 5282, "\u0120leisten": 5283, "ued": 5284, "ugs": 5285, "\u0120furthermore": 5286, "\u0120meinen": 5287, "\u0120niedr": 5288, "geber": 5289, "\u0120criteria": 5290, "\u0120assessment": 5291, "\u0120source": 5292, "\u0120finanzierung": 5293, "daten": 5294, "\u0120audio": 5295, "\u0120study": 5296, "\u0120coming": 5297, "\u0120regime": 5298, "\u0120ps": 5299, "\u0120gef\u00c3\u00bchrt": 5300, "\u0120accession": 5301, "\u01202011": 5302, "\u0120sand": 5303, "frieden": 5304, "\u0120werk": 5305, "hab": 5306, "ta": 5307, "\u0120africa": 5308, "ii": 5309, "m\u00c3\u00a4\u00c3\u0141ig": 5310, "25": 5311, "\u0120discussion": 5312, "will": 5313, "inger": 5314, "\u0120determin": 5315, "icit": 5316, "\u0120ven": 5317, "\u0120hei\u00c3\u0141t": 5318, "\u0120fert": 5319, "\u0120writing": 5320, "\u0120keyword": 5321, "\u0120arbeitnehmer": 5322, "\u0120scientific": 5323, "\u0120files": 5324, "\u0120reduction": 5325, "\u0120monet": 5326, "\u0120marketing": 5327, "orf": 5328, "\u0120virt": 5329, "\u0120beschlossen": 5330, "\u0120squ": 5331, "\u00c3\u00b6rper": 5332, "\u0120afghan": 5333, "kennen": 5334, "\u0120ga": 5335, "\u0120dang": 5336, "\u0120erschein": 5337, "\u0120museum": 5338, "\u0120tick": 5339, "\u0120spezial": 5340, "\u0120forder": 5341, "\u0120block": 5342, "ierenden": 5343, "\u0120black": 5344, "\u0120rapid": 5345, "\u0120train": 5346, "\u0120tier": 5347, "\u0120durchgef\u00c3\u00bchrt": 5348, "\u0120komfort": 5349, "\u0120zweite": 5350, "die": 5351, "\u0120entschlie\u00c3\u0141ung": 5352, "\u0120wochen": 5353, "\u0120bed\u00c3\u00bcr": 5354, "fahrens": 5355, "\u0120ster": 5356, "\u0120purpose": 5357, "\u0120tools": 5358, "\u0120transparency": 5359, "\u0120property": 5360, "\u0120wunder": 5361, "\u0120university": 5362, "\u0120auswahl": 5363, "\u0120resort": 5364, "\u0120besch\u00c3\u00a4ftigungs": 5365, "\u0120equal": 5366, "folgerungen": 5367, "\u0120reich": 5368, "\u00c3\u00a4nge": 5369, "\u0120rum": 5370, "\u0120lau": 5371, "zi": 5372, "\u0120fire": 5373, "\u0120priorities": 5374, "gener": 5375, "\u0120supported": 5376, "\u0120vorliegen": 5377, "strategie": 5378, "alle": 5379, "\u0120ganze": 5380, "\u0120unemploy": 5381, "\u0120verf\u00c3\u00bcgen": 5382, "\u0120lower": 5383, "anzen": 5384, "\u0120anzahl": 5385, "\u0120proceed": 5386, "urance": 5387, "\u0120formul": 5388, "\u0120berat": 5389, "\u0120agency": 5390, "\u0120everyone": 5391, "\u0120comprom": 5392, "\u0120guidelines": 5393, "\u0120stark": 5394, "\u0120barcelona": 5395, "\u0120l\u00c3\u00b6sungen": 5396, "\u0120kosovo": 5397, "\u0120bereiche": 5398, "\u0120construction": 5399, "\u0120$": 5400, "\u0120italian": 5401, "\u0120verwenden": 5402, "lines": 5403, "\u0120legit": 5404, "\u0120moreover": 5405, "\u0120gerne": 5406, "ork": 5407, "heben": 5408, "\u0120kapital": 5409, "\u0120influen": 5410, "\u0120nachdem": 5411, "bezogen": 5412, "\u0120amster": 5413, "owers": 5414, "\u0120sieht": 5415, "\u0120beitritts": 5416, "\u0120gr\u00c3\u00b6\u00c3\u0141ten": 5417, "iber": 5418, "\u0120beide": 5419, "sv": 5420, "\u0120satell": 5421, "\u0120mai": 5422, "stellungen": 5423, "\u0120entscheidungen": 5424, "\u0120deutschen": 5425, "\u0120learn": 5426, "\u0120dise": 5427, "\u0120mis": 5428, "ki": 5429, "\u0120fu\u00c3\u0141": 5430, "\u0120prepared": 5431, "\u0120comprehensive": 5432, "ibility": 5433, "ush": 5434, "\u0120activity": 5435, "\u0120plans": 5436, "\u0120tel": 5437, "\u0120whose": 5438, "\u0120cohesion": 5439, "\u0120folgenden": 5440, "\u0120anderer": 5441, "ga": 5442, "ziehung": 5443, "\u0120spanien": 5444, "\u0120illegal": 5445, "\u0120gro\u00c3\u0141er": 5446, "\u0120pie": 5447, "\u012070": 5448, "\u0120partnerschaft": 5449, "igur": 5450, "\u012090": 5451, "\u0120fr\u00c3\u00bchst\u00c3\u00bcck": 5452, "angt": 5453, "zeuge": 5454, "\u0120efficiency": 5455, "\u0120ansatz": 5456, "\u0120installation": 5457, "\u0120monaten": 5458, "\u0120fer": 5459, "\u0120zahlreiche": 5460, "\u0120kenntnis": 5461, "\u0120meines": 5462, "amera": 5463, "\u0120plat": 5464, "\u0120sense": 5465, "\u0120creating": 5466, "l\u00c3\u00b6s": 5467, "kn": 5468, "\u0120audit": 5469, "\u0120constit": 5470, "ystem": 5471, "iable": 5472, "\u0120verpflichtungen": 5473, "uff": 5474, "\u0120brought": 5475, "sibilities": 5476, "\u0120l\u00c3\u00a4sst": 5477, "\u01202020": 5478, "oph": 5479, "\u0120tor": 5480, "\u0120leicht": 5481, "\u0120condition": 5482, "kret": 5483, "\u0120representatives": 5484, "\u0120sites": 5485, "\u0120mang": 5486, "\u0120reise": 5487, "\u0120initiatives": 5488, "\u0120interpre": 5489, "gef": 5490, "\u0120grand": 5491, "\u0120eindeut": 5492, "\u0120erg\u00c3\u00a4n": 5493, "\u0120reforms": 5494, "\u0120spezif": 5495, "schreit": 5496, "\u0120schen": 5497, "\u0120calls": 5498, "\u0120ult": 5499, "\u0120simpl": 5500, "\u0120dopp": 5501, "\u0120handeln": 5502, "assungs": 5503, "\u0120implemented": 5504, "\u0120administrative": 5505, "\u0120exc": 5506, "\u0120recover": 5507, "\u00c3\u00bctzt": 5508, "\u0120applied": 5509, "\u0120transparenz": 5510, "\u0120mail": 5511, "iglich": 5512, "\u0120schiff": 5513, "bericht": 5514, "wertungen": 5515, "\u0120anstreng": 5516, "verage": 5517, "una": 5518, "arm": 5519, "\u0120analysis": 5520, "\u0120aufent": 5521, "cluded": 5522, "ane": 5523, "\u0120seems": 5524, "reten": 5525, "\u0120lediglich": 5526, "itable": 5527, "df": 5528, "\u0120competitiveness": 5529, "\u0120stimme": 5530, "\u0120foot": 5531, "\u0120zunehmen": 5532, "\u0120death": 5533, "\u0120gestimmt": 5534, "\u0120j\u00c3\u00a4hr": 5535, "inted": 5536, "zusch": 5537, "\u0120humanitarian": 5538, "\u0120wettbewerbsf\u00c3\u00a4higkeit": 5539, "\u0120bekommen": 5540, "\u0120gleichen": 5541, "\u0120repla": 5542, "\u0120wonder": 5543, "\u0120congratul": 5544, "view": 5545, "\u0120f\u00c3\u00a4h": 5546, "\u0120sch\u00c3\u00b6": 5547, "\u0120seas": 5548, "statt": 5549, "\u0120griechen": 5550, "krimin": 5551, "\u00c3\u00a4st": 5552, "\u0120bestand": 5553, "\u0120symb": 5554, "\u0120select": 5555, "lex": 5556, "\u0120doll": 5557, "osen": 5558, "\u0120guten": 5559, "\u0120shown": 5560, "stein": 5561, "arily": 5562, "\u0120exhib": 5563, ".,": 5564, "\u0120geschaffen": 5565, "\u0120reviews": 5566, "\u0120dennoch": 5567, "\u012026": 5568, "18": 5569, "\u0120bef\u00c3\u00bcr": 5570, "ery": 5571, "pla": 5572, "\u0120provision": 5573, "\u0120hom": 5574, "\u0120dipl": 5575, "hotel": 5576, "\u0120richtig": 5577, "\u0120reduz": 5578, "artige": 5579, "\u0120summer": 5580, "ope": 5581, "\u0120scre": 5582, "\u0120zehn": 5583, "\u0120statement": 5584, "\u0120authority": 5585, "\u0120laufen": 5586, "\u0120ski": 5587, "ola": 5588, "\u0120huge": 5589, "\u0120erleich": 5590, "\u0120vergangenen": 5591, "\u0120herausforderungen": 5592, "\u0120radio": 5593, "\u0120budgetary": 5594, "\u0120declar": 5595, "\u0120gives": 5596, "mus": 5597, "forderung": 5598, "\u0120accom": 5599, "\u0120behind": 5600, "point": 5601, "\u0120anspruch": 5602, "\u0120er\u00c3\u00b6ff": 5603, "itive": 5604, "m\u00c3\u00b6glichkeiten": 5605, "igungen": 5606, "agn": 5607, "\u0120okt": 5608, "\u0120os": 5609, "\u0120nationen": 5610, "\u0120bey": 5611, "\u0120forum": 5612, "\u0120init": 5613, "\u0120mitarbeiter": 5614, "\u0120dauer": 5615, "\u0120financing": 5616, "wise": 5617, "\u0120sant": 5618, "\u0120neighbour": 5619, "\u01201996": 5620, "\u0120forms": 5621, "\u0120employe": 5622, "\u0120direction": 5623, "\u0120october": 5624, "ques": 5625, "\u0120improving": 5626, "\u0120www": 5627, "\u0120verwaltungs": 5628, "\u0120frequ": 5629, "\u0120voraus": 5630, "uz": 5631, "\u0120strand": 5632, "\u0120pover": 5633, "\u0120wichtiger": 5634, "\u0120anforderungen": 5635, "phone": 5636, "\u0120pressure": 5637, "\u0120solidarity": 5638, "14": 5639, "\u0120pain": 5640, "\u0120preise": 5641, "orial": 5642, "\u0120angebot": 5643, "\u0120conflict": 5644, "\u0120contr": 5645, "\u0120zahlen": 5646, "\u0120woche": 5647, "\u0120plant": 5648, "\u0120expected": 5649, "\u0120poverty": 5650, "m\u00c3\u00a4r": 5651, "\u0120dont": 5652, "spiel": 5653, "\u0120approved": 5654, "\u0120consist": 5655, "\u0120size": 5656, "\u0120published": 5657, "\u0120einzig": 5658, "verkehrs": 5659, "\u0120gebracht": 5660, "17": 5661, "\u0120payment": 5662, "\u0120strategic": 5663, "erc": 5664, "\u0120ways": 5665, "\u0120charge": 5666, "\u0120wid": 5667, "\u0120base": 5668, "krise": 5669, "uis": 5670, "\u0120\u0120": 5671, "\u0120pleas": 5672, "\u0120compon": 5673, "ox": 5674, "\u0120sagte": 5675, "\u0120diskut": 5676, "\u0120ressourcen": 5677, "\u0120parteien": 5678, "\u0120komprom": 5679, "\u0120journal": 5680, "\u0120monetary": 5681, "\u0120edit": 5682, "\u0120wan": 5683, "\u0120stellungnahme": 5684, "zeichnung": 5685, "\u0120gruppen": 5686, "\u0120satisf": 5687, "iment": 5688, "vious": 5689, "\u0120distr": 5690, "\u0120america": 5691, "\u0120elements": 5692, "\u0120peoples": 5693, "\u0120erh\u00c3\u00a4lt": 5694, "\u0120berg": 5695, "\u0120feed": 5696, "\u0120attem": 5697, "\u0120ost": 5698, "\u0120\u00c3\u00a4nderung": 5699, "lad": 5700, "\u0120sufficient": 5701, "\u0120display": 5702, "\u0120erfolgreich": 5703, "\u0120q": 5704, "gene": 5705, "ara": 5706, "\u0120genie\u00c3\u0141en": 5707, "\u0120f\u00c3\u00a4llen": 5708, "\u0120ire": 5709, "\u0120arrang": 5710, "here": 5711, "\u0120kontin": 5712, "\u0120entsprechend": 5713, "itect": 5714, "\u0120border": 5715, "\u0120mountain": 5716, "\u0120jav": 5717, "\u0120erneut": 5718, "\u0120relationship": 5719, "\u0120urban": 5720, "inter": 5721, "ellschaften": 5722, "\u0120beschluss": 5723, "\u0120limit": 5724, "\u0120v\u00c3\u00b6llig": 5725, "\u0120largest": 5726, "\u0120behin": 5727, "\u0120grenzen": 5728, "\u0120impl": 5729, "\u0120tab": 5730, "pa": 5731, "\u0120sechs": 5732, "lla": 5733, "\u0120nachbar": 5734, "\u0120bessere": 5735, "\u0120bot": 5736, "\u0120beyond": 5737, "\u0120amsterdam": 5738, "\u0120eigene": 5739, "\u0120pil": 5740, "\u0120accordance": 5741, "\u0120equipped": 5742, "aden": 5743, "\u0120requires": 5744, "\u0120nationale": 5745, "\u0120erreich": 5746, "fft": 5747, "\u00c3\u00b6st": 5748, "\u0120eastern": 5749, "\u0120ruh": 5750, "\u0120rede": 5751, "\u0120leave": 5752, "\u0120documents": 5753, "\u0120verm": 5754, "\u0120erach": 5755, "scheid": 5756, "\u0120300": 5757, "legten": 5758, "bene": 5759, "\u0120gefahr": 5760, "\u0120tell": 5761, "\u0120stimmen": 5762, "\u0120concept": 5763, "\u01201995": 5764, "anken": 5765, "\u0120bir": 5766, "ikations": 5767, "\u0120islam": 5768, "dra": 5769, "\u0120january": 5770, "\u0120floor": 5771, "\u00c3\u00a4ngt": 5772, "leistungs": 5773, "handel": 5774, "\u0120leistungs": 5775, "\u0120player": 5776, "\u0120enterprise": 5777, "estic": 5778, "\u0120affect": 5779, "scht": 5780, "\u0120eingesetzt": 5781, "ehr": 5782, "klus": 5783, "\u0120ehem": 5784, "\u0120initial": 5785, "\u0120diplom": 5786, "\u0120domin": 5787, "\u0120british": 5788, "\u0120solchen": 5789, "\u0120beob": 5790, "\u00c3\u00a4mt": 5791, "\u0120debian": 5792, "\u0120renew": 5793, "\u0120auftrag": 5794, "\u0120obvious": 5795, "\u0120gip": 5796, "\u0120fon": 5797, "\u0120crimin": 5798, "\u0120section": 5799, "\u0120prob": 5800, "\u0120grenz\u00c3\u00bcber": 5801, "\u0120aufgenommen": 5802, "richtlinie": 5803, "\u0120adoption": 5804, "\u0120m\u00c3\u00a4rz": 5805, "\u0120h\u00c3\u00b6her": 5806, "\u0120multil": 5807, "\u0120armut": 5808, "\u0120k\u00c3\u00b6nigreich": 5809, "\u0120infrastruktur": 5810, "\u0120sach": 5811, "\u0120ausf\u00c3\u00bchr": 5812, "adem": 5813, "\u0120hostels": 5814, "\u0120anstrengungen": 5815, "\u0120\u00c3\u00a4u\u00c3\u0141erst": 5816, "otes": 5817, "\u0120defen": 5818, "\u0120ensuring": 5819, "\u0120freiheit": 5820, "aschinen": 5821, "\u0120nav": 5822, "\u0120reference": 5823, "\u0120krieg": 5824, "icated": 5825, "\u0120unfortunately": 5826, "\u0120electric": 5827, "\u0120kit": 5828, "\u0120recon": 5829, "\u0120tage": 5830, "alter": 5831, "\u0120loss": 5832, "\u0120produktion": 5833, "\u0120na": 5834, "\u0120\u00c3\u00b6ff": 5835, "\u0120aktivit\u00c3\u00a4ten": 5836, "\u0120games": 5837, "\u0120greece": 5838, "\u012035": 5839, "\u0120bez\u00c3\u00bc": 5840, "\u0120untersch": 5841, "\u0120participation": 5842, "meer": 5843, "ature": 5844, "\u0120h\u00c3\u00a4ufig": 5845, "tent": 5846, "\u0120architect": 5847, "leistung": 5848, "\u0120threat": 5849, "istische": 5850, "\u0120patent": 5851, "ivity": 5852, "\u0120bein": 5853, "zulegen": 5854, "\u0120came": 5855, "where": 5856, "\u0120arab": 5857, "feld": 5858, "\u0120finn": 5859, "based": 5860, "\u0120oktober": 5861, "\u0120urlaub": 5862, "regel": 5863, "\u0120k\u00c3\u00bcnst": 5864, "........": 5865, "\u0120besondere": 5866, "\u0120firm": 5867, "iately": 5868, "\u0120spirit": 5869, "star": 5870, "\u0120coast": 5871, "\u0120facilit": 5872, "\u0120got": 5873, "laf": 5874, "gment": 5875, "\u0120erzielt": 5876, "\u0120sales": 5877, "cs": 5878, "\u0120applic": 5879, "\u0120bedarf": 5880, "ategories": 5881, "\u0120definition": 5882, "\u0120serb": 5883, "\u0120cause": 5884, "\u0120stad": 5885, "ares": 5886, "\u0120cert": 5887, "\u0120july": 5888, "\u0120relation": 5889, "\u0120pr\u00c3\u00a4sidenten": 5890, "\u0120georg": 5891, "\u0120verwaltung": 5892, "\u0120entsprechenden": 5893, "ente": 5894, "\u0120unmittel": 5895, "\u0120elections": 5896, "\u0120spanish": 5897, "\u0120administration": 5898, "\u0120s\u00c3\u00a4mt": 5899, "\u0120box": 5900, "\u0120verstehen": 5901, "\u0120wirksam": 5902, "\u0120beru": 5903, "\u0120vertrauen": 5904, "\u0120festgelegt": 5905, "\u0120organisationen": 5906, "\u0120zeitraum": 5907, "\u0120selbstverst\u00c3\u00a4nd": 5908, "\u0120structure": 5909, "\u0120effizient": 5910, "date": 5911, "\u0120poll": 5912, "\u0120acquis": 5913, "\u0120easily": 5914, "\u0120reflect": 5915, "opping": 5916, "ously": 5917, "\u0120deutsche": 5918, "\u0120aufbau": 5919, "\u0120ful": 5920, "\u0120maximum": 5921, "\u0120violence": 5922, "standen": 5923, "\u0120substantial": 5924, "\u0120verbind": 5925, "\u0120kommissarin": 5926, "\u0120annahme": 5927, "\u0120villa": 5928, "\u0120counter": 5929, "\u0120schweiz": 5930, "\u0120pr\u00c3\u00a4sent": 5931, "\u0120benutzer": 5932, "\u0120agent": 5933, "\u0120flugha": 5934, "\u0120buy": 5935, "\u0120vorher": 5936, "\u0120mediterranean": 5937, "ads": 5938, "\u0120investitions": 5939, "\u0120prinzip": 5940, "\u00c3\u00bcndet": 5941, "iot": 5942, "\u0120kredit": 5943, "\u0120pr\u00c3\u00bcfen": 5944, "\u0120federal": 5945, "\u0120adopt": 5946, "\u0120prime": 5947, "\u0120signal": 5948, "nungen": 5949, "\u0120allowed": 5950, "\u0120fischerei": 5951, "\u0120weder": 5952, "\u0120mel": 5953, "\u0120justiz": 5954, "\u0120york": 5955, "\u0120competitive": 5956, "\u0120verpflichtet": 5957, "\u0120transparent": 5958, "\u0120accommodation": 5959, "oo": 5960, "eite": 5961, "\u0120produced": 5962, "\u0120juli": 5963, "\u0120minor": 5964, "porary": 5965, "\u0120cd": 5966, "\u0120verst\u00c3\u00a4nd": 5967, "\u0120\u00c3\u00a4ndern": 5968, "\u0120clar": 5969, "\u0120unterb": 5970, "\u0120erfahrung": 5971, "\u0120intell": 5972, "\u0120mos": 5973, "r\u00c3\u00bc": 5974, "\u0120repe": 5975, "\u0120aims": 5976, "\u0120release": 5977, "\u0120bod": 5978, "\u0120uner": 5979, "\u0120austria": 5980, "altet": 5981, "president": 5982, "\u0120mont": 5983, "\u0120mun": 5984, "\u0120telefon": 5985, "euro": 5986, "\u0120gele": 5987, "\u0120verme": 5988, "\u0120sonst": 5989, "haupt": 5990, "\u0120bez\u00c3\u00bcglich": 5991, "iveau": 5992, "gere": 5993, "\u0120crucial": 5994, "piel": 5995, "\u0120anderem": 5996, "\u0120operating": 5997, "\u0120verhalten": 5998, "\u0120relating": 5999, "\u0120paid": 6000, "\u0120zweck": 6001, "\u0120urspr\u00c3\u00bcn": 6002, "\u0120wann": 6003, "konom": 6004, "ero": 6005, "\u0120expla": 6006, "wiesen": 6007, "gruppen": 6008, "\u0120ber\u00c3\u00bccksichtigt": 6009, "bit": 6010, "\u0120networks": 6011, "\u0120brand": 6012, "\u0120appar": 6013, "zy": 6014, "chsel": 6015, "\u0120meinem": 6016, "\u01202012": 6017, "\u0120finanziellen": 6018, "\u0120ireland": 6019, "\u0120path": 6020, "\u0120ecu": 6021, "\u0120vorgelegt": 6022, "unsch": 6023, "dr\u00c3\u00bccklich": 6024, "bert": 6025, "akter": 6026, "\u0120practical": 6027, "\u0120vision": 6028, "\u0120inhalt": 6029, "\u0120temper": 6030, "\u0120einzige": 6031, "\u0120st\u00c3\u00a4rker": 6032, "\u0120representative": 6033, "\u0120alten": 6034, "\u0120arm": 6035, "osla": 6036, "\u0120genommen": 6037, "ktoren": 6038, "\u0120verwir": 6039, "\u0120expert": 6040, "\u0120challenge": 6041, "\u0120concentr": 6042, "\u0120sonder": 6043, "\u0120berichts": 6044, "bourg": 6045, "\u0120trag": 6046, "\u0120farmers": 6047, "front": 6048, "wohn": 6049, "\u0120tourism": 6050, "\u0120versuchen": 6051, "\u0120message": 6052, "\u0120wesentlichen": 6053, "gas": 6054, "\u0120damage": 6055, "\u0120types": 6056, "\u0120secure": 6057, "\u0120anders": 6058, "ierende": 6059, "\u0120wall": 6060, "\u0120orient": 6061, "\u0120places": 6062, "volle": 6063, "\u0120describ": 6064, "\u0120vital": 6065, "\u0120regelung": 6066, "\u0120bald": 6067, "rad": 6068, "ante": 6069, "kap": 6070, "\u0120hinge": 6071, "bas": 6072, "durch": 6073, "\u0120b\u00c3\u00bcrgern": 6074, "\u0120verbesser": 6075, "\u0120insel": 6076, "page": 6077, "reibung": 6078, "\u0120ferien": 6079, "\u0120weak": 6080, "\u0120talk": 6081, "\u0120started": 6082, "\u0120genannten": 6083, "\u0120produce": 6084, "\u0120wom": 6085, "\u0120reformen": 6086, "uk": 6087, "\u0120innen": 6088, "uft": 6089, "\u0120conver": 6090, "\u01202013": 6091, "\u0120nimmt": 6092, "\u0120village": 6093, "programme": 6094, "\u0120technologie": 6095, "199": 6096, "\u0120aufgaben": 6097, "\u0120improved": 6098, "\u0120pleased": 6099, "\u0120bathroom": 6100, "\u0120lam": 6101, "\u0120friends": 6102, "\u0120aspekte": 6103, "\u0120obje": 6104, "\u0120aufmerksamkeit": 6105, "\u0120pun": 6106, "\u0120pr\u00c3\u00a4sidentschaft": 6107, "\u0120developments": 6108, "\u0120giving": 6109, "stag": 6110, "b\u00c3\u00bcr": 6111, "angs": 6112, "\u0120sports": 6113, "\u0120sprache": 6114, "\u0120cham": 6115, "\u0120flor": 6116, "utt": 6117, "lichung": 6118, "elten": 6119, "\u0120renov": 6120, "\u0120werte": 6121, "\u0120scheint": 6122, "\u0120secretary": 6123, "16": 6124, "nes": 6125, "\u0120diejenigen": 6126, "\u0120style": 6127, "\u0120heim": 6128, "\u0120teach": 6129, "ritten": 6130, "abor": 6131, "freund": 6132, "\u0120w\u00c3\u00a4hlen": 6133, "\u0120gewor": 6134, "\u0120vorgehen": 6135, "\u0120-,": 6136, "\u0120verabschied": 6137, "astic": 6138, "ategorien": 6139, "\u0120produktions": 6140, "wind": 6141, "\u0120operations": 6142, "\u0120getroffen": 6143, "ected": 6144, "imming": 6145, "\u0120ehemal": 6146, "\u0120betrieb": 6147, "\u0120bege": 6148, "esch": 6149, "\u0120stra\u00c3\u0141en": 6150, "\u00c3\u00a4ude": 6151, "spricht": 6152, "\u0120fr\u00c3\u00bcher": 6153, "\u0120plen": 6154, "\u0120aimed": 6155, "\u0120rent": 6156, "\u0120keiner": 6157, "head": 6158, "\u0120schriftlich": 6159, "\u0120ehr": 6160, "\u0120growing": 6161, "onnen": 6162, "\u0120forces": 6163, "\u0120written": 6164, "\u0120drive": 6165, "\u0120eleg": 6166, "\u0120worlds": 6167, "\u0120geist": 6168, "\u0120bestehenden": 6169, "ita": 6170, "\u0120iraq": 6171, "\u0120church": 6172, "\u0120thous": 6173, "\u0120governance": 6174, "\u0120consequences": 6175, "aign": 6176, "\u0120punkte": 6177, "\u0120k\u00c3\u00bcrz": 6178, "imination": 6179, "\u0120gold": 6180, "\u0120scope": 6181, "\u0120kingdom": 6182, "\u0120arbeitslos": 6183, "gebiet": 6184, "\u0120reading": 6185, "iction": 6186, "proble": 6187, "\u0120versuch": 6188, "\u0120praxis": 6189, "ai": 6190, "\u0120herzen": 6191, "\u0120compromise": 6192, "ugosla": 6193, "\u0120ours": 6194, "\u0120196": 6195, "\u0120zweitens": 6196, "ded": 6197, "\u0120zuge": 6198, "\u0120offiz": 6199, "house": 6200, "systeme": 6201, "\u0120konnten": 6202, "\u0120dv": 6203, "\u0120atmosphere": 6204, "\u0120gross": 6205, "\u0120campaign": 6206, "\u0120erd": 6207, "\u0120committed": 6208, "\u0120abschluss": 6209, "ocol": 6210, "\u0120!": 6211, "\u0120technischen": 6212, "\u0120else": 6213, "sie": 6214, "\u0120electronic": 6215, "\u0120sinne": 6216, "\u0120variety": 6217, "ids": 6218, "\u0120erfahrungen": 6219, "\u0120enterprises": 6220, "\u0120ausreich": 6221, "\u0120januar": 6222, "\u0120ones": 6223, "\u0120employees": 6224, "endes": 6225, "\u0120permanent": 6226, "\u0120erwarten": 6227, "\u0120opening": 6228, "\u0120por": 6229, "\u0120accep": 6230, "comm": 6231, "zech": 6232, "\u0120superv": 6233, "\u0120ziehen": 6234, "\u0120borders": 6235, "\u0120adr": 6236, "ammlung": 6237, "\u0120schlussfolgerungen": 6238, "\u0120plus": 6239, "\u0120establishment": 6240, "\u0120ign": 6241, "\u0120options": 6242, "mobil": 6243, "utr": 6244, "\u0120encourage": 6245, "\u0120verletz": 6246, "\u0120teilen": 6247, "gs": 6248, "\u0120zufrieden": 6249, "tert": 6250, "\u0120jeweiligen": 6251, "antly": 6252, "\u0120director": 6253, "\u0120ready": 6254, "\u0120quant": 6255, "\u0120bewusst": 6256, "\u0120valid": 6257, "\u0120erf\u00c3\u00bcllen": 6258, "\u0120circum": 6259, "agra": 6260, "\u0120band": 6261, "\u0120deg": 6262, "\u0120schritte": 6263, "uert": 6264, "punkte": 6265, "\u0120einrichtung": 6266, "\u0120exception": 6267, "ych": 6268, "gesetz": 6269, "\u0120ereign": 6270, "akte": 6271, "\u0120highest": 6272, "\u0120wine": 6273, "\u0120behandlung": 6274, "\u0120coordination": 6275, "\u0120komb": 6276, "izin": 6277, "\u0120folgende": 6278, "angeb": 6279, "\u0120advantage": 6280, "\u0120debt": 6281, "\u0120exerc": 6282, "\u0120daily": 6283, "):": 6284, "wasser": 6285, "\u0120ey": 6286, "\u0120diskussion": 6287, "\u0120ge\u00c3\u00a4nder": 6288, "\u0120gek": 6289, "ktive": 6290, "\u0120t\u00c3\u00a4": 6291, "\u0120selbstverst\u00c3\u00a4ndlich": 6292, "\u0120print": 6293, "\u0120konzept": 6294, "\u0120refuge": 6295, "\u0120betroffenen": 6296, "\u0120unemployment": 6297, "\u0120betra": 6298, "orge": 6299, "\u0120arbeitspl\u00c3\u00a4tze": 6300, "stoffe": 6301, "\u0120mas": 6302, "eth": 6303, "ugg": 6304, "\u0120offered": 6305, "\u0120verhindern": 6306, "\u0120aktual": 6307, "\u0120au\u00c3\u0141erhalb": 6308, "\u0120griechenland": 6309, "ney": 6310, "\u0120powers": 6311, "\u0120verh\u00c3\u00a4lt": 6312, "\u0120players": 6313, "\u0120poten": 6314, "\u0120infring": 6315, "\u0120folgt": 6316, "\u0120metho": 6317, "\u0120abend": 6318, "\u0120produz": 6319, "\u0120erfahren": 6320, "\u0120provin": 6321, "\u0120suchen": 6322, "\u0120late": 6323, "bewertungen": 6324, "\u0120familie": 6325, "\u0120starting": 6326, "\u0120sud": 6327, "\u01201990": 6328, "\u0120immediately": 6329, "\u00c3\u00a4ne": 6330, "\u0120weeks": 6331, "este": 6332, "uls": 6333, "nern": 6334, "\u0120alloc": 6335, "\u0120expressed": 6336, "\u0120erachtens": 6337, "\u0120wahrschein": 6338, "cco": 6339, "\u0120ratspr\u00c3\u00a4sident": 6340, "\u0120implementing": 6341, "\u0120engagement": 6342, "\u0120average": 6343, "\u0120syr": 6344, "\u0120mart": 6345, "ffee": 6346, "g\u00c3\u00bclt": 6347, "entwicklung": 6348, "\u0120regionalen": 6349, "\u0120science": 6350, "ilit\u00c3\u00a4t": 6351, "klang": 6352, "zusetzen": 6353, "\u0120appear": 6354, "\u0120processes": 6355, "\u0120verkauf": 6356, "ech": 6357, "\u0120dinge": 6358, "\u0120ersch": 6359, "\u0120crime": 6360, "mous": 6361, "zehn": 6362, "\u0120patient": 6363, "\u0120affected": 6364, "richten": 6365, "\u0120intended": 6366, "\u0120assist": 6367, "\u0120geeign": 6368, "\u0120czech": 6369, "\u0120intervention": 6370, "\u0120vice": 6371, "\u0120ausgestattet": 6372, "\u0120sommer": 6373, "\u0120hot": 6374, "\u0120klicken": 6375, "\u0120discussions": 6376, "\u0120regierungs": 6377, "ktions": 6378, "24": 6379, "\u0120clients": 6380, "\u0120fine": 6381, "\u0120ungar": 6382, "\u0120privaten": 6383, "iro": 6384, "\u0120mechanis": 6385, "\u0120palest": 6386, "\u0120jur": 6387, "\u0120bed\u00c3\u00bcrf": 6388, "ffet": 6389, "\u0120track": 6390, "\u0120eingehen": 6391, "\u0120subsidiar": 6392, "werte": 6393, "\u0120umgesetzt": 6394, "\u0120provider": 6395, "\u0120swimming": 6396, "\u0120zoll": 6397, "\u0120aktuellen": 6398, "ograf": 6399, "\u0120cities": 6400, "\u0120gespr": 6401, "\u0120zus\u00c3\u00a4tzliche": 6402, "\u0120verurs": 6403, "\u0120decide": 6404, "\u0120ausgaben": 6405, "\u0120anteil": 6406, "\u0120symbol": 6407, "\u0120defence": 6408, "ussels": 6409, "\u0120wirks": 6410, "\u0120wr": 6411, "\u0120kal": 6412, "\u0120terrorism": 6413, "\u0120vorge": 6414, "\u0120vereinbarung": 6415, "\u0120pal\u00c3\u00a4st": 6416, "\u012031": 6417, "\u0120technische": 6418, "\u0120sicherzustellen": 6419, "\u0120folge": 6420, "\u0120worldwide": 6421, "\u0120rh": 6422, "ls": 6423, "\u0120vert": 6424, "\u0120todays": 6425, "km": 6426, "\u0120reduced": 6427, "pective": 6428, "lu\u00c3\u0141": 6429, "\u0120bos": 6430, "\u0120auto": 6431, "respon": 6432, "\u0120\u00c3\u00b6k": 6433, "\u0120finanzielle": 6434, "\u0120ky": 6435, "\u00c3\u00a4te": 6436, "\u0120milliar": 6437, "\u0120lernen": 6438, "\u0120banken": 6439, "\u0120st\u00c3\u00a4rkung": 6440, "\u0120risks": 6441, "\u0120behandelt": 6442, "achtung": 6443, "\u0120promoting": 6444, "ades": 6445, "altungen": 6446, "cript": 6447, "\u0120languages": 6448, "\u0120terrorismus": 6449, "\u0120vul": 6450, "\u0120einzu": 6451, "\u0120ideas": 6452, "\u0120demokratischen": 6453, "\u0120offering": 6454, "\u0120geworden": 6455, "idge": 6456, "\u0120freien": 6457, "\u0120verbessert": 6458, "\u0120unterk": 6459, "gende": 6460, "\u0120exact": 6461, "\u0120discr": 6462, "\u0120surve": 6463, "\u0120migration": 6464, "\u0120sky": 6465, "ruption": 6466, "fi": 6467, "asion": 6468, ".)": 6469, "\u0120\u00c3\u00bcbergang": 6470, "\u0120stabilit\u00c3\u00a4t": 6471, "\u0120advert": 6472, "\u0120remov": 6473, "\u0120brief": 6474, "\u0120brussels": 6475, "\u0120sometimes": 6476, "\u0120sort": 6477, "\u0120zuver": 6478, "\u0120useful": 6479, "\u0120manufactur": 6480, "endit": 6481, "\u0120interested": 6482, "pet": 6483, "\u0120animal": 6484, "\u0120fields": 6485, "iente": 6486, "\u0120reality": 6487, "\u0120worth": 6488, "utzt": 6489, "\u0120extent": 6490, "80": 6491, "\u0120h\u00c3\u00b6r": 6492, "\u0120bringt": 6493, "\u0120institutional": 6494, "\u0120auszu": 6495, "\u0120v\u00c3\u00b6l": 6496, "\u0120minder": 6497, "\u0120kore": 6498, "h\u00c3\u00b6rde": 6499, "dete": 6500, "partner": 6501, "\u0120conven": 6502, "\u0120initiativen": 6503, "\u0120erfolgt": 6504, "\u0120begrenz": 6505, "\u0120bem\u00c3\u00bc": 6506, "\u0120stunden": 6507, "\u0120kriterien": 6508, "zt": 6509, "\u0120bay": 6510, "ams": 6511, "\u0120st\u00c3\u00a4rken": 6512, "\u0120konsult": 6513, "\u0120enhan": 6514, "reiber": 6515, "\u0120verbreit": 6516, "\u0120nr": 6517, "\u0120format": 6518, "\u0120gegenseit": 6519, "\u0120river": 6520, "\u0120ben\u00c3\u00b6tigen": 6521, "\u0120planning": 6522, "\u0120numerous": 6523, "\u0120woll": 6524, "\u0120bedro": 6525, "\u0120priorit\u00c3\u00a4ten": 6526, "\u0120centr": 6527, "\u0120traffic": 6528, "\u0120interesting": 6529, "\u0120h\u00c3\u00a4tten": 6530, "\u0120t\u00c3\u00a4tigkeit": 6531, "ml": 6532, "\u0120protokoll": 6533, "\u0120heutigen": 6534, "kauf": 6535, "prec": 6536, "\u0120erkl\u00c3\u00a4rt": 6537, "\u0120g\u00c3\u00a4stebewertungen": 6538, "\u0120einigung": 6539, "\u0120beant": 6540, "\u0120pr\u00c3\u00bcfung": 6541, "\u0120wenige": 6542, "no": 6543, "\u0120beseit": 6544, "leb": 6545, "\u0120ade": 6546, "\u0120currency": 6547, "\u0120irak": 6548, "\u0120secondly": 6549, "\u0120eigentlich": 6550, "\u0120fuer": 6551, "\u0120lines": 6552, "\u0120modified": 6553, "\u0120linie": 6554, "\u0120fas": 6555, "enze": 6556, "\u0120vollst\u00c3\u00a4ndig": 6557, "\u0120umgebung": 6558, "\u0120unz": 6559, "\u0120promotion": 6560, "ilen": 6561, "quate": 6562, "\u0120heav": 6563, "\u0120shopping": 6564, "\u0120frem": 6565, "\u0120liebe": 6566, "\u0120graph": 6567, "\u0120became": 6568, "\u0120criminal": 6569, "\u0120\u00c3\u00bcberw": 6570, "\u0120flughafen": 6571, "\u0120unbed": 6572, "\u0120gr\u00c3\u00bcnd": 6573, "\u0120amt": 6574, "\u0120square": 6575, "kret\u00c3\u00a4r": 6576, "\u0120reag": 6577, "ruct": 6578, "\u0120enfor": 6579, "\u0120historical": 6580, "f\u00c3\u00a4lle": 6581, "\u0120confidence": 6582, "\u0120practices": 6583, "\u0120schwierigkeiten": 6584, "\u0120sache": 6585, "\u0120mindestens": 6586, "\u0120mainly": 6587, "\u0120adjust": 6588, "\u0120norm": 6589, "\u0120lives": 6590, "\u0120detailed": 6591, "ischem": 6592, "\u0120rum\u00c3\u00a4n": 6593, "\u0120komplex": 6594, "emb": 6595, "\u0120gr\u00c3\u00b6\u00c3\u0141te": 6596, "\u0120vergessen": 6597, "\u0120urg": 6598, "ples": 6599, "\u0120entgegen": 6600, "\u0120vereinten": 6601, "\u0120poland": 6602, "\u0120gebieten": 6603, "\u0120revolution": 6604, "\u0120negative": 6605, "\u0120gl\u00c3\u00bcck": 6606, "\u00c3\u00bchm": 6607, "\u0120diskrimin": 6608, "\u0120doppel": 6609, "\u0120ded": 6610, "\u0120multi": 6611, "\u0120medical": 6612, "\u0120likely": 6613, "\u0120konstru": 6614, "\u0120anerkennung": 6615, "stat": 6616, "\u0120fl\u00c3\u00bccht": 6617, "bald": 6618, "bringen": 6619, "schnitt": 6620, "\u0120prozent": 6621, "\u0120platform": 6622, "\u0120methods": 6623, "\u0120volk": 6624, "itzer": 6625, "\u0120quiet": 6626, "\u0120ausw\u00c3\u00a4rt": 6627, "\u0120chair": 6628, "\u0120compos": 6629, "\u0120einklang": 6630, "\u0120b\u00c3\u00bcrgerinnen": 6631, "\u0120allgemeine": 6632, "aler": 6633, "\u0120supporting": 6634, "morrow": 6635, "\u0120goal": 6636, "\u0120stil": 6637, "\u0120krank": 6638, "\u0120transition": 6639, "\u0120hall": 6640, "\u0120genu": 6641, "\u0120tomorrow": 6642, "\u0120sch\u00c3\u00bctzen": 6643, "\u0120distance": 6644, "\u0120teile": 6645, "\u0120caused": 6646, "lement": 6647, "\u0120einst": 6648, "lichkeiten": 6649, "\u0120opposition": 6650, "\u0120richtlinien": 6651, "\u0120st\u00c3\u00a4rk": 6652, "\u0120gdp": 6653, "\u0120erneuer": 6654, "\u0120listen": 6655, "band": 6656, "\u0120declaration": 6657, "\u0120ausl": 6658, "\u0120lake": 6659, "\u0120bezahl": 6660, "\u0120phone": 6661, "\u0120tack": 6662, "ungsverfahren": 6663, "lege": 6664, "\u0120umst": 6665, "\u0120vorteile": 6666, "\u0120freiz": 6667, "\u0120conclusion": 6668, "\u00c3\u00a4nglich": 6669, "\u0120dringend": 6670, "\u0120g\u00c3\u00bcnst": 6671, "\u0120globalen": 6672, "ktors": 6673, "\u00c3\u00bcg": 6674, "\u0120mex": 6675, "anlage": 6676, "45": 6677, "son": 6678, "\u0120students": 6679, "\u0120nahm": 6680, "zielle": 6681, "\u0120friedens": 6682, "craft": 6683, "\u0120incor": 6684, "\u0120covered": 6685, "fter": 6686, "\u0120effectively": 6687, "\u0120pension": 6688, "\u0120genug": 6689, "\u0120russian": 6690, "\u00c3\u00a4mpfen": 6691, "\u0120jen": 6692, "\u0120scr": 6693, "\u0120).": 6694, "\u0120gn": 6695, "\u0120join": 6696, "----": 6697, "\u0120alter": 6698, "fraktion": 6699, "ifying": 6700, "\u0120erwartet": 6701, "\u0120antrag": 6702, "\u0120commitments": 6703, "\u0120firstly": 6704, "back": 6705, "\u0120chann": 6706, "\u0120police": 6707, "\u0120disp": 6708, "ories": 6709, "\u0120angeboten": 6710, "\u0120abh\u00c3\u00a4ng": 6711, "st\u00c3\u00a4t": 6712, "\u0120nachhaltige": 6713, "\u0120tourist": 6714, "ris": 6715, "ager": 6716, "ibe": 6717, "\u0120geschlossen": 6718, "\u0120erstens": 6719, "\u0120afghanistan": 6720, "hood": 6721, "instr": 6722, "\u0120br\u00c3\u00bcssel": 6723, "\u0120asso": 6724, "gn": 6725, "\u0120earl": 6726, "pack": 6727, "\u0120rise": 6728, "\u0120beginnen": 6729, "\u0120corporate": 6730, "\u0120erwer": 6731, "board": 6732, "\u0120erforderlichen": 6733, "\u0120update": 6734, "\u0120goes": 6735, "\u0120mix": 6736, "\u0120anz": 6737, "elben": 6738, "\u0120sources": 6739, "\u0120quar": 6740, "\u0120gering": 6741, "\u0120nahr": 6742, "cers": 6743, "cul": 6744, "\u0120gast": 6745, "\u0120analyse": 6746, "hafte": 6747, "\u0120rechnung": 6748, "\u0120extend": 6749, "\u0120glauben": 6750, "\u0120ourselves": 6751, "\u0120jahrhundert": 6752, "\u0120tsche": 6753, "\u0120experts": 6754, "\u0120fonds": 6755, "\u0120happy": 6756, "ichtlich": 6757, "sektor": 6758, "\u0120gr\u00c3\u00b6\u00c3\u0141ere": 6759, "\u0120flexible": 6760, "\u0120sobald": 6761, "tellten": 6762, "\u0120parking": 6763, "crete": 6764, "finanz": 6765, "\u0120bodies": 6766, "ym": 6767, "beh\u00c3\u00b6rden": 6768, "\u0120convin": 6769, "\u0120processing": 6770, "\u01201994": 6771, "\u0120begin": 6772, "tr\u00c3\u00a4gen": 6773, "barer": 6774, "ns": 6775, "\u0120trading": 6776, "\u0120opfer": 6777, "wesen": 6778, "\u0120consultation": 6779, "\u0120blog": 6780, "ground": 6781, "standing": 6782, "\u0120meaning": 6783, "\u0120linux": 6784, "\u0120cell": 6785, "\u0120vorbe": 6786, "\u0120collection": 6787, "\u0120eher": 6788, "\u0120grant": 6789, "\u0120bip": 6790, "\u0120medic": 6791, "\u0120insp": 6792, "\u0120ver\u00c3\u00b6ffentlicht": 6793, "\u0120sprach": 6794, "\u0120delivery": 6795, "\u0120menschenrechts": 6796, "\u0120conduct": 6797, "mod": 6798, "konferenz": 6799, "\u0120wein": 6800, "\u0120supports": 6801, "\u0120closely": 6802, "\u0120begr\u00c3\u00bc\u00c3\u0141e": 6803, "\u0120strom": 6804, "used": 6805, "\u0120entstehen": 6806, "\u0120wiederhol": 6807, "\u0120tagesordnung": 6808, "\u0120introduction": 6809, "gers": 6810, "\u0120entry": 6811, "\u0120nether": 6812, "\u0120gefunden": 6813, "\u0120betreffenden": 6814, "iker": 6815, "institution": 6816, "\u0120formal": 6817, "\u0120perfe": 6818, "ifizierung": 6819, "\u0120discussed": 6820, "\u0120prag": 6821, "atoren": 6822, "\u0120raised": 6823, "wortern": 6824, "\u0120absatz": 6825, "cia": 6826, "\u0120countrys": 6827, "schul": 6828, "\u0120rob": 6829, "indest": 6830, "\u0120compens": 6831, "\u0120separate": 6832, "\u0120otherwise": 6833, "\u0120er\u00c3\u00b6r": 6834, "pal": 6835, "\u0120selection": 6836, "\u0120fish": 6837, "theless": 6838, "icherung": 6839, "utive": 6840, "\u0120fordert": 6841, "\u0120machine": 6842, "\u0120nevertheless": 6843, "zeichnen": 6844, "alog": 6845, "\u0120getan": 6846, "coming": 6847, "\u0120entspricht": 6848, "\u0120lob": 6849, "\u0120k\u00c3\u00b6rper": 6850, "\u0120laws": 6851, "\u0120obligations": 6852, "\u0120wild": 6853, "\u0120besonderen": 6854, "\u0120client": 6855, "cription": 6856, "\u0120polen": 6857, "portion": 6858, "\u0120domestic": 6859, "\u0120circumstances": 6860, "\u0120colleagues": 6861, "rel": 6862, "\u0120einrichtungen": 6863, "\u0120schaden": 6864, "\u0120offens": 6865, "onia": 6866, "\u0120hold": 6867, "\u0120verwirk": 6868, "\u0120tagen": 6869, "\u0120h\u00c3\u00b6chst": 6870, "\u0120wunsch": 6871, "\u0120programms": 6872, "\u0120erf": 6873, "\u0120scheme": 6874, "\u0120meetings": 6875, "\u0120youth": 6876, "\u0120forest": 6877, "ania": 6878, "igran": 6879, "\u0120seines": 6880, "\u0120specif": 6881, "mel": 6882, "\u0120earth": 6883, "\u0120bahn": 6884, "gehend": 6885, "\u0120leitlinien": 6886, "\u0120setzt": 6887, "\u0120anfrage": 6888, "schluss": 6889, "\u0120recognis": 6890, "\u0120technologien": 6891, "\u0120strengthening": 6892, "\u0120katastrop": 6893, "\u0120introduced": 6894, "iell": 6895, "\u0120bewertung": 6896, "endence": 6897, "\u0120historic": 6898, "\u0120chinese": 6899, "\u0120tschech": 6900, "\u0120increasingly": 6901, "\u0120halte": 6902, "z\u00c3\u00bcglich": 6903, "itude": 6904, "achsen": 6905, "\u0120granted": 6906, "verletz": 6907, "izes": 6908, "\u0120gew\u00c3\u00a4hrleistet": 6909, "netz": 6910, "\u0120marg": 6911, "\u0120risiko": 6912, "\u0120kennen": 6913, "\u0120wellness": 6914, "\u0120solidarit\u00c3\u00a4t": 6915, "\u0120transa": 6916, "\u0120undertak": 6917, "\u0120chines": 6918, "\u0120wahlen": 6919, "\u0120zus\u00c3\u00a4tzlich": 6920, "\u0120t\u00c3\u00a4tig": 6921, "\u0120\u00c3\u00bcbernehmen": 6922, "\u0120expendit": 6923, "\u0120bilder": 6924, "wachst": 6925, "\u0120schlusselwortern": 6926, "\u0120animals": 6927, "\u0120kontext": 6928, "\u0120netherlands": 6929, "\u0120paar": 6930, "\u0120empfehlungen": 6931, "\u012045": 6932, "\u0120coup": 6933, "\u0120entsprechende": 6934, "\u0120fax": 6935, "\u0120insurance": 6936, "office": 6937, "\u0120richtige": 6938, "\u0120cos": 6939, "\u0120microsoft": 6940, "\u0120hear": 6941, "cles": 6942, "union": 6943, "\u0120einfluss": 6944, "\u0120recommendations": 6945, "\u0120m\u00c3\u00b6glicherweise": 6946, "sam": 6947, "erstellen": 6948, "\u0120kannst": 6949, "\u0120victims": 6950, "\u0120malt": 6951, "\u0120erhol": 6952, "\u0120schwar": 6953, "europe": 6954, "\u012032": 6955, "\u0120grundsatz": 6956, "\u0120entschlossen": 6957, "\u0120haupts": 6958, "ighted": 6959, "\u0120halb": 6960, "\u0120aust": 6961, "iums": 6962, "\u0120ability": 6963, "border": 6964, "nel": 6965, "orsitz": 6966, "\u0120letzte": 6967, "pak": 6968, "ringen": 6969, "\u0120concrete": 6970, "\u0120dispos": 6971, "\u0120lost": 6972, "\u0120begr\u00c3\u00bc\u00c3\u0141t": 6973, "\u0120mitte": 6974, "ought": 6975, "\u0120medizin": 6976, "\u0120vehicles": 6977, "inens": 6978, "auftrag": 6979, "hagen": 6980, "\u0120fant": 6981, "oker": 6982, "\u0120comply": 6983, "\u0120ber\u00c3\u00bccksichtigen": 6984, "\u0120foundation": 6985, "\u0120lies": 6986, "\u0120\u00c3\u00b6l": 6987, "\u0120homepage": 6988, "\u0120interpret": 6989, "\u0120dead": 6990, "isierungs": 6991, "\u0120milliarden": 6992, "\u0120lit": 6993, "handels": 6994, "\u0120visa": 6995, "ruit": 6996, "\u0120barr": 6997, "gung": 6998, "\u0120\u00c3\u00bcberwachung": 6999, "\u0120wege": 7000, "\u0120w\u00c3\u00a4hrungs": 7001, "\u0120paralle": 7002, "\u0120unl": 7003, "\u0120pros": 7004, "\u0120voting": 7005, "\u0120kommenden": 7006, "\u0120associated": 7007, "verein": 7008, "\u0120datab": 7009, "\u0120income": 7010, "laden": 7011, "\u0120belar": 7012, "etting": 7013, "\u0120monate": 7014, "\u0120darstellt": 7015, "inary": 7016, "\u0120payments": 7017, "\u0120accepted": 7018, "\u0120roma": 7019, "\u0120verantwortlich": 7020, "\u0120liter": 7021, "\u0120kommunikation": 7022, "\u0120kostenlos": 7023, "\u0120swiss": 7024, "\u00c3\u00bccken": 7025, "\u0120doubt": 7026, "\u0120ethn": 7027, "\u0120vergangenheit": 7028, "\u0120pictures": 7029, "\u0120schl\u00c3\u00bcssel": 7030, "\u0120ech": 7031, "ato": 7032, "ius": 7033, "\u0120touch": 7034, "\u0120goog": 7035, "\u0120sprachen": 7036, "\u0120saying": 7037, "\u0120claim": 7038, "\u0120bilden": 7039, "rum": 7040, "ichert": 7041, "izing": 7042, "\u0120falle": 7043, "\u0120fordern": 7044, "r\u00c3\u00a4ge": 7045, "\u0120aktuelle": 7046, "\u0120aw": 7047, "\u0120dollar": 7048, "\u0120jem": 7049, "\u0120wand": 7050, "\u0120kompet": 7051, "\u0120korre": 7052, "\u0120klimawand": 7053, "\u0120konflikt": 7054, "grenz": 7055, "\u0120prefer": 7056, "\u0120b\u00c3\u00bcro": 7057, "book": 7058, "\u0120instrumente": 7059, "preis": 7060, "\u0120occup": 7061, "\u0120zumindest": 7062, "\u0120shop": 7063, "umb": 7064, "\u00c3\u00a4lter": 7065, "\u0120ergreifen": 7066, "\u0120images": 7067, "etzungen": 7068, "lose": 7069, "\u0120immobil": 7070, "\u0120fl\u00c3\u00bcchtl": 7071, "l\u00c3\u00bcsse": 7072, "\u0120deine": 7073, "tragen": 7074, "\u0120vorrang": 7075, "kr\u00c3\u00a4fte": 7076, "\u0120labor": 7077, "oder": 7078, "\u0120advanced": 7079, "\u0120psych": 7080, "37": 7081, "\u0120existen": 7082, "\u0120argument": 7083, "\u0120thought": 7084, "\u0120chan": 7085, "\u0120ber\u00c3\u00bchm": 7086, "\u0120transp": 7087, "\u0120aufenthalt": 7088, "\u0120arten": 7089, "\u0120bedenken": 7090, "\u0120horiz": 7091, "lass": 7092, "karte": 7093, "acc": 7094, "\u0120popul": 7095, "\u0120probably": 7096, "\u0120vertrie": 7097, "oto": 7098, "\u0120195": 7099, "\u0120bestell": 7100, "\u0120l\u00c3\u00a4ndlichen": 7101, "inform": 7102, "\u0120trust": 7103, "systems": 7104, "\u0120entschieden": 7105, "\u0120fiscal": 7106, "ieter": 7107, "kle": 7108, "inian": 7109, "\u0120aufnahme": 7110, "\u0120influence": 7111, "\u0120compar": 7112, "\u0120master": 7113, "\u0120kenn": 7114, "body": 7115, "\u0120vent": 7116, "\u0120lokalen": 7117, "\u0120reducing": 7118, "\u0120fab": 7119, "\u0120nachfol": 7120, "\u0120barro": 7121, "inding": 7122, "\u0120marit": 7123, "\u0120congratulate": 7124, "\u0120recovery": 7125, "\u0120\u00c3\u00a4r": 7126, "\u0120gewesen": 7127, "\u0120entwicklungen": 7128, "\u0120websites": 7129, "sprechen": 7130, "ensions": 7131, "ql": 7132, "\u0120nato": 7133, "versorgung": 7134, "\u0120rechnungs": 7135, "\u0120mehreren": 7136, "\u0120zahlreichen": 7137, "cape": 7138, "\u0120fein": 7139, "\u0120moderne": 7140, "\u0120koordinierung": 7141, "\u0120candidate": 7142, "cas": 7143, "\u0120communities": 7144, "\u0120generally": 7145, "\u0120genutzt": 7146, "adr": 7147, "\u0120beteiligung": 7148, "loss": 7149, "hold": 7150, "\u0120k\u00c3\u00bcche": 7151, "\u0120erf\u00c3\u00bcllt": 7152, "\u0120brow": 7153, "\u0120mechanism": 7154, "\u0120connect": 7155, "how": 7156, "\u0120geograph": 7157, "\u0120exem": 7158, "\u00c3\u00b6rt": 7159, "\u0120dritten": 7160, "\u0120duty": 7161, "version": 7162, "\u0120blue": 7163, "\u0120reinfor": 7164, "\u0120signed": 7165, "\u0120dienen": 7166, "icip": 7167, "\u0120gr\u00c3\u00b6\u00c3\u0141er": 7168, "\u0120agen": 7169, "nach": 7170, "\u0120ew": 7171, "laufen": 7172, "\u0120ausger": 7173, "\u0120modell": 7174, "\u0120regulatory": 7175, "\u0120erh\u00c3\u00b6hen": 7176, "\u0120beitritt": 7177, "\u0120usw": 7178, "\u0120followed": 7179, "\u0120vielfalt": 7180, "ktiven": 7181, "\u0120apprec": 7182, "ek": 7183, "ieht": 7184, "\u0120visitors": 7185, "\u0120sorg": 7186, "\u0120namely": 7187, "\u0120john": 7188, "02": 7189, "\u0120map": 7190, "\u0120firma": 7191, "\u0120haft": 7192, "\u0120repres": 7193, "\u0120contro": 7194, "management": 7195, "f\u00c3\u00bchl": 7196, "\u0120alb": 7197, "len": 7198, "\u0120operators": 7199, "b\u00c3\u00bcrger": 7200, "%.": 7201, "\u0120hintergrund": 7202, "\u0120verur": 7203, "\u0120qualit\u00c3\u00a4ts": 7204, "\u0120fallen": 7205, "\u0120kmu": 7206, "zwe": 7207, "\u0120gall": 7208, "\u0120cook": 7209, "\u0120remember": 7210, "\u0120critic": 7211, "\u0120immigration": 7212, "\u0120represents": 7213, "\u0120zerst": 7214, "\u0120deep": 7215, "\u0120transform": 7216, "\u0120ausschlie\u00c3\u0141lich": 7217, "\u0120comments": 7218, "\u0120erkl\u00c3\u00a4rte": 7219, "\u0120hund": 7220, "\u0120charakter": 7221, "\u0120wesentlich": 7222, "\u0120eindeutig": 7223, ");": 7224, "\u0120seek": 7225, "ils": 7226, "\u0120alone": 7227, "\u0120considerable": 7228, "\u0120zustimmung": 7229, "ape": 7230, "\u0120compared": 7231, "\u0120dienste": 7232, "\u0120studies": 7233, "\u0120gradu": 7234, "vision": 7235, "\u0120understanding": 7236, "\u0120purposes": 7237, "\u0120rasch": 7238, "\u0120fresh": 7239, "\u0120regionale": 7240, "itch": 7241, "\u0120berichte": 7242, "\u0120wood": 7243, "\u0120skills": 7244, "\u0120angaben": 7245, "qualit\u00c3\u00a4t": 7246, "\u0120angelegenheit": 7247, "\u0120save": 7248, "\u0120versucht": 7249, "\u0120inflation": 7250, "\u0120\u00c3\u00bcberhaupt": 7251, "\u0120establishing": 7252, "\u0120einhaltung": 7253, "ibr": 7254, "\u0120abschlie\u00c3\u0141end": 7255, "\u0120bedroom": 7256, "\u0120screen": 7257, "\u0120ausbildung": 7258, "39": 7259, "bra": 7260, "\u0120investigation": 7261, "\u0120gebrauch": 7262, "\u0120continued": 7263, "\u0120lesen": 7264, "uting": 7265, "\u0120trend": 7266, "\u0120placed": 7267, "\u0120hoff": 7268, "\u0120core": 7269, "\u0120spect": 7270, "\u00c3\u00b6m": 7271, "wel": 7272, "\u0120w\u00c3\u00bcnschen": 7273, "\u0120kauf": 7274, "\u0120einzus": 7275, "\u0120love": 7276, "\u0120concluded": 7277, "\u0120waffen": 7278, "\u0120hosp": 7279, "\u0120anything": 7280, "\u0120won": 7281, "ologischen": 7282, "\u0120safegu": 7283, "\u0120fitness": 7284, "\u0120listed": 7285, "\u0120firmen": 7286, "\u0120capt": 7287, "set": 7288, "\u0120obtain": 7289, "\u0120glob": 7290, "\u0120konsequ": 7291, "inal": 7292, "\u0120zuk": 7293, "\u0120philos": 7294, "\u0120began": 7295, "\u0120compla": 7296, "\u0120geh": 7297, "\u0120operational": 7298, "\u0120watch": 7299, "\u0120honour": 7300, "\u0120inf": 7301, "\u0120geb\u00c3\u00a4ude": 7302, "\u0120sole": 7303, "\u0120boden": 7304, "\u0120parliamentary": 7305, "\u0120welches": 7306, "zeiten": 7307, "\u0120laut": 7308, "ampag": 7309, "raten": 7310, "zeichen": 7311, "\u0120beteiligten": 7312, "last": 7313, "\u0120expenditure": 7314, "mente": 7315, "\u0120ausschu\u00c3\u0141": 7316, "\u0120fixed": 7317, "\u0120darunter": 7318, "\u0120lehr": 7319, "\u0120pal\u00c3\u00a4stinens": 7320, "\u0120alban": 7321, "\u0120manner": 7322, "\u0120euch": 7323, "\u0120google": 7324, "atively": 7325, "\u0120kompromiss": 7326, "ham": 7327, "tritt": 7328, "\u0120obser": 7329, "tete": 7330, "illa": 7331, "sec": 7332, "\u0120grenz\u00c3\u00bcberschreit": 7333, "\u0120specifically": 7334, "\u0120confir": 7335, "\u0120selected": 7336, "\u0120konkrete": 7337, "\u0120tagung": 7338, "\u0120critical": 7339, "\u0120expand": 7340, "\u0120adapt": 7341, "b\u00c3\u00bc": 7342, "\u0120besuchen": 7343, "herstell": 7344, "making": 7345, "\u012075": 7346, "\u0120compat": 7347, "\u0120demands": 7348, "\u0120irland": 7349, "vorschlag": 7350, "\u0120mittelmeer": 7351, "\u0120gleiche": 7352, "\u0120eisen": 7353, "\u0120feature": 7354, "\u0120stable": 7355, "prin": 7356, "\u0120umfasst": 7357, "\u0120investments": 7358, "\u0120northern": 7359, "ev": 7360, "\u0120colour": 7361, "called": 7362, "\u0120opened": 7363, "\u0120stets": 7364, "\u0120terrace": 7365, "\u0120pfl": 7366, "\u0120unten": 7367, "programms": 7368, "\u0120endg\u00c3\u00bclt": 7369, "initi": 7370, "aust": 7371, "aries": 7372, "\u0120bab": 7373, "\u00c3\u00a4ger": 7374, "\u0120schengen": 7375, "\u0120fear": 7376, "\u0120notwendigen": 7377, "\u0120protected": 7378, "\u0120cooper": 7379, "\u0120industries": 7380, "\u0120acqu": 7381, "\u0120unterschiedlichen": 7382, "\u0120fla": 7383, "\u0120eingef\u00c3\u00bchrt": 7384, "\u0120derzeitigen": 7385, "\u0120goals": 7386, "\u0120nahrungs": 7387, "cast": 7388, "w\u00c3\u00bcn": 7389, "\u0120managed": 7390, "mand": 7391, "\u0120stated": 7392, "\u0120percent": 7393, "\u0120walking": 7394, "\u0120n\u00c3\u00b6t": 7395, "\u0120confirm": 7396, "\u0120unbe": 7397, "\u0120learning": 7398, "\u00c3\u00bcter": 7399, "uly": 7400, "\u0120rub": 7401, "\u0120staatliche": 7402, "anlagen": 7403, "\u0120gef\u00c3\u00b6r": 7404, "\u0120excess": 7405, "\u0120protocol": 7406, "\u0120producers": 7407, "\u0120zuk\u00c3\u00bcnft": 7408, "\u0120storage": 7409, "\u0120ge\u00c3\u00a4ndert": 7410, "\u0120erkennen": 7411, "\u0120linked": 7412, "\u0120leader": 7413, "\u0120erweiter": 7414, "\u0120vat": 7415, "\u0120notes": 7416, "\u0120combat": 7417, "\u0120wachsen": 7418, "\u0120running": 7419, "\u0120spl": 7420, "ione": 7421, "\u0120families": 7422, "\u0120chinas": 7423, "ora": 7424, "\u0120vereinfach": 7425, "\u0120stake": 7426, "\u0120erzielen": 7427, "\u0120menu": 7428, "\u0120\u00c3\u00bcberzeugt": 7429, "\u0120klim": 7430, "\u0120gott": 7431, "\u0120150": 7432, "\u0120figures": 7433, "\u0120consumption": 7434, "\u0120kaum": 7435, "\u0120season": 7436, "pft": 7437, "\u0120haushalt": 7438, "\u0120begr\u00c3\u00bc\u00c3\u0141en": 7439, "\u0120recognition": 7440, "isierten": 7441, "\u0120gr\u00c3\u00bc": 7442, "fl\u00c3\u00a4che": 7443, "\u0120participate": 7444, "\u0120komplett": 7445, "steht": 7446, "it\u00c3\u00a4re": 7447, "\u0120oben": 7448, "\u0120f\u00c3\u00b6rder": 7449, "\u0120morning": 7450, "\u0120beweg": 7451, "\u0120color": 7452, "\u0120god": 7453, "\u0120rock": 7454, "\u0120targets": 7455, "\u0120nationaler": 7456, "\u0120begriff": 7457, "\u0120amerikan": 7458, "\u0120sitzung": 7459, "\u0120croat": 7460, "\u0120dir": 7461, "\u0120song": 7462, "\u0120modernen": 7463, "\u0120solar": 7464, "\u0120abgeschlossen": 7465, "leitung": 7466, "\u0120respekt": 7467, "\u0120respond": 7468, "dienste": 7469, "\u0120ausgewo": 7470, "\u0120erlaubt": 7471, "govern": 7472, "\u0120osten": 7473, "\u0120worked": 7474, "\u0120essen": 7475, "stelle": 7476, "\u0120gezeigt": 7477, "\u0120chemical": 7478, "\u0120abzu": 7479, "\u0120bosn": 7480, "\u01202014": 7481, "now": 7482, "\u0120wanted": 7483, "\u0120d\u00c3\u00a4n": 7484, "\u0120cur": 7485, "iat": 7486, "\u0120manager": 7487, "\u0120jahrhunder": 7488, "\u0120surpr": 7489, "\u0120organised": 7490, "\u0120liz": 7491, "\u0120customs": 7492, "urop\u00c3\u00a4": 7493, "\u0120entw": 7494, "\u0120tief": 7495, "\u0120failure": 7496, "vollen": 7497, "\u0120asia": 7498, "\u0120klass": 7499, "\u0120explo": 7500, "\u0120arrangements": 7501, "\u0120bestimmt": 7502, "l\u00c3\u00a4gt": 7503, "brit": 7504, "\u0120archite": 7505, "\u0120dol": 7506, "\u0120freuen": 7507, "\u0120extensive": 7508, "\u0120isol": 7509, "\u0120ausgang": 7510, "preise": 7511, "mas": 7512, "\u0120madr": 7513, "\u0120earlier": 7514, "\u0120wachstums": 7515, "\u0120fed": 7516, "\u0120february": 7517, "ming": 7518, "\u0120components": 7519, "\u0120verf\u00c3\u00bcgbar": 7520, "sl": 7521, "anda": 7522, "\u0120accompan": 7523, "\u0120benach": 7524, "\u0120antworten": 7525, "\u0120disap": 7526, "\u0120usually": 7527, "\u0120wahrscheinlich": 7528, "\u0120heard": 7529, "\u0120historischen": 7530, "\u0120photo": 7531, "pap": 7532, "\u0120parad": 7533, "l\u00c3\u00a4gen": 7534, "zentrum": 7535, "\u00c3\u00bchren": 7536, "\u0120tests": 7537, "\u0120verfassung": 7538, "\u01201992": 7539, "\u0120m\u00c3\u00bcn": 7540, "ferences": 7541, "\u0120informed": 7542, "\u0120danach": 7543, "\u0120vorhaben": 7544, "\u0120changed": 7545, "\u0120asylum": 7546, "\u0120v\u00c3\u00b6lker": 7547, "\u0120trying": 7548, "\u0120hit": 7549, "\u0120gesetzt": 7550, "\u0120entwurf": 7551, "\u0120panor": 7552, "\u0120vermeiden": 7553, "ufe": 7554, "\u0120depos": 7555, "\u0120membership": 7556, "\u0120pakistan": 7557, "\u0120frankf": 7558, "\u0120untersuchung": 7559, "aming": 7560, "\u0120wrong": 7561, "f\u00c3\u00b6r": 7562, "iant": 7563, "iede": 7564, "pool": 7565, "stechn": 7566, "\u0120referred": 7567, "\u00c3\u00b6sen": 7568, "\u0120burden": 7569, "\u0120fulfil": 7570, "\u0120susp": 7571, "freiheit": 7572, "ifik": 7573, "kommun": 7574, "\u0120hop": 7575, "\u0120eingerichtet": 7576, "\u0120steel": 7577, "\u0120bilateral": 7578, "\u0120decor": 7579, "\u0120unbedingt": 7580, "\u0120ausw\u00c3\u00a4rtige": 7581, "\u0120vac": 7582, "\u0120casino": 7583, "\u0120directives": 7584, "\u0120beihilfe": 7585, "\u0120erfolgen": 7586, "\u0120economies": 7587, "mittelt": 7588, "gr\u00c3\u00b6": 7589, "\u0120kreat": 7590, "\u0120gebiete": 7591, "\u0120automatically": 7592, "\u0120hochwert": 7593, "cd": 7594, "\u0120sold": 7595, "\u0120serve": 7596, "\u0120funktionieren": 7597, "f\u00c3\u00bchrten": 7598, "\u0120erinnern": 7599, "\u0120difficulties": 7600, "\u0120zuverl\u00c3\u00a4ss": 7601, "\u0120nom": 7602, "\u0120compliance": 7603, "\u0120sad": 7604, "ungsver": 7605, "ichern": 7606, "aktiv": 7607, "\u0120gap": 7608, "\u0120launched": 7609, "\u0120parame": 7610, "\u0120endlich": 7611, "iles": 7612, "\u0120regre": 7613, "\u0120polize": 7614, "\u0120helpf": 7615, "\u0120atmosph\u00c3\u00a4re": 7616, "attle": 7617, "ypt": 7618, "\u0120einbe": 7619, "\u0120suitable": 7620, "70": 7621, "\u0120pers\u00c3\u00b6nlichen": 7622, "\u0120spread": 7623, "\u0120evidence": 7624, "\u0120austral": 7625, "\u0120denken": 7626, "yal": 7627, "itter": 7628, "\u0120district": 7629, "\u0120strict": 7630, "\u0120w\u00c3\u00a4ren": 7631, "\u0120leiden": 7632, "\u0120expos": 7633, "\u0120aufzu": 7634, "\u0120rech": 7635, "\u0120herunter": 7636, "\u0120anc": 7637, "\u0120speziell": 7638, "haften": 7639, "ometer": 7640, "\u0120vize": 7641, "enty": 7642, "\u0120instance": 7643, "\u0120unge": 7644, "\u0120auss": 7645, "\u0120cypr": 7646, "\u0120s\u00c3\u00a4mtliche": 7647, "\u012000": 7648, "\u0120oly": 7649, "\u0120charter": 7650, "\u0120intel": 7651, "\u0120belarus": 7652, "\u0120fellow": 7653, "\u0120festival": 7654, "\u0120systeme": 7655, "\u0120exter": 7656, "\u0120umfassende": 7657, "schung": 7658, "\u0120gesehen": 7659, "\u0120bildungs": 7660, "\u0120kitchen": 7661, "\u0120southern": 7662, "\u0120berichterstatterin": 7663, "afr": 7664, "\u0120structures": 7665, "\u0120zone": 7666, "\u0120spieler": 7667, "\u0120degree": 7668, "\u0120untern": 7669, "\u0120einver": 7670, "werke": 7671, "entscheid": 7672, "\u0120absolutely": 7673, "\u0120schm": 7674, "\u0120gegr": 7675, "\u0120universal": 7676, "\u0120prevention": 7677, "iding": 7678, "\u0120comment": 7679, "\u0120correspon": 7680, "\u0120m\u00c3\u00a4rkte": 7681, "\u0120wiederauf": 7682, "grams": 7683, "\u0120delay": 7684, "istry": 7685, "\u0120licht": 7686, "\u0120attach": 7687, "\u0120mutual": 7688, "\u0120leav": 7689, "\u0120mobility": 7690, "\u0120arbeitsmarkt": 7691, "istics": 7692, "bruch": 7693, "\u0120functions": 7694, "\u0120automatisch": 7695, "\u0120welcomes": 7696, "\u0120j\u00c3\u00bcngsten": 7697, "\u0120darstellen": 7698, "\u0120bekr": 7699, "\u0120stattfinden": 7700, "\u0120tr\u00c3\u00a4gt": 7701, "\u0120mindest": 7702, "\u0120hervorragen": 7703, "\u0120spring": 7704, "\u0120trip": 7705, "\u0120evaluation": 7706, "aint": 7707, "\u0120presence": 7708, "\u0120olymp": 7709, "\u00c3\u00a4ften": 7710, "ole": 7711, "\u0120bew\u00c3\u00a4lt": 7712, "\u0120observ": 7713, "lock": 7714, "22": 7715, "\u0120volle": 7716, "\u0120facing": 7717, "\u0120andererseits": 7718, "dire": 7719, "isely": 7720, "pat": 7721, "omet": 7722, "ores": 7723, "itzerland": 7724, "\u0120raise": 7725, "\u0120plants": 7726, "\u0120islands": 7727, "f\u00c3\u00bchrer": 7728, "\u0120conserv": 7729, "\u0120consolid": 7730, "\u01201993": 7731, "holders": 7732, "\u0120weap": 7733, "\u0120dagegen": 7734, "region": 7735, "year": 7736, "\u0120heil": 7737, "\u0120monat": 7738, "\u0120agencies": 7739, "\u0120belieb": 7740, "\u0120sets": 7741, "\u0120powerful": 7742, "omb": 7743, "\u0120akte": 7744, "\u0120anne": 7745, "\u0120hause": 7746, "\u0120sav": 7747, "\u0120bekr\u00c3\u00a4ft": 7748, "\u0120rig": 7749, "\u0120vorteil": 7750, "\u0120pdf": 7751, "fuhr": 7752, "\u0120m\u00c3\u00b6glichst": 7753, "\u0120erm": 7754, "fl\u00c3\u00bc": 7755, "\u0120gegenw\u00c3\u00a4rtig": 7756, "idents": 7757, "\u0120maritime": 7758, "\u0120controls": 7759, "uel": 7760, "\u0120danke": 7761, "\u0120entit": 7762, "alled": 7763, "\u0120bott": 7764, "reise": 7765, "\u0120flexibility": 7766, "\u0120voraussetzungen": 7767, "\u0120african": 7768, "\u0120aqu": 7769, "\u0120wol": 7770, "car": 7771, "britann": 7772, "\u0120k\u00c3\u00bcnstler": 7773, "!!": 7774, "prinzip": 7775, "\u0120motion": 7776, "\u0120moral": 7777, "\u0120internationaler": 7778, "\u0120ausgezeichnet": 7779, "can": 7780, "\u0120buildings": 7781, "\u0120inside": 7782, "going": 7783, "\u0120smes": 7784, "ipt": 7785, "\u0120kroat": 7786, "\u0120defined": 7787, "\u0120dienstleistungs": 7788, "\u0120railway": 7789, "\u0120getting": 7790, "\u0120seven": 7791, "\u0120territory": 7792, "entions": 7793, "\u0120shared": 7794, "\u0120profitieren": 7795, "\u0120guide": 7796, "\u0120bitten": 7797, "\u0120closed": 7798, "\u0120picture": 7799, "uche": 7800, "\u0120fortschritt": 7801, "commun": 7802, "\u0120genehmigt": 7803, "\u0120afrika": 7804, "\u0120talking": 7805, "\u0120tip": 7806, "\u0120zeichen": 7807, "98": 7808, "icate": 7809, "\u0120properly": 7810, "\u0120romania": 7811, "pflicht": 7812, "\u0120betrach": 7813, "\u0120studio": 7814, "\u0120bars": 7815, "igem": 7816, "\u0120announced": 7817, "pass": 7818, "\u0120landwir": 7819, "erzeug": 7820, "\u0120erstellen": 7821, "\u0120propose": 7822, "\u0120programs": 7823, "\u0120cars": 7824, "\u0120ahead": 7825, "\u0120genet": 7826, "leiten": 7827, "\u0120mur": 7828, "vest": 7829, "kur": 7830, "arge": 7831, "\u0120konzentrieren": 7832, "\u0120entweder": 7833, "government": 7834, "ysteme": 7835, "ata": 7836, "\u0120\u00c3\u00bcbersch": 7837, "\u0120\u00c3\u00bcberpr\u00c3\u00bcfung": 7838, "\u0120philosoph": 7839, "plans": 7840, "\u0120geeignet": 7841, "\u0120koh\u00c3\u00a4s": 7842, "\u0120taus": 7843, "icts": 7844, "\u0120beur": 7845, "akes": 7846, "\u0120amts": 7847, "\u0120incorpor": 7848, "\u0120cro": 7849, "\u0120lif": 7850, "\u0120h\u00c3\u00a4lt": 7851, "\u00c3\u00a4den": 7852, "\u0120angegeben": 7853, "\u0120ausgew": 7854, "vak": 7855, "\u0120l\u00c3\u00a4nger": 7856, "lern": 7857, "itious": 7858, "clude": 7859, "\u0120suite": 7860, "betrie": 7861, "\u0120positions": 7862, "\u0120unabh\u00c3\u00a4ngig": 7863, "\u0120luxembourg": 7864, "\u0120400": 7865, "\u0120willing": 7866, "zieht": 7867, "\u0120zust\u00c3\u00a4ndigen": 7868, "\u0120actual": 7869, "hnung": 7870, "\u0120becoming": 7871, "\u0120outcome": 7872, "\u0120ver\u00c3\u00a4nderungen": 7873, "\u0120quot": 7874, "\u0120reserve": 7875, "letzt": 7876, "\u0120india": 7877, "\u0120submit": 7878, "\u0120communications": 7879, "\u0120purchase": 7880, "\u0120festge": 7881, "\u0120wants": 7882, "\u0120genannt": 7883, "\u0120verpflichtung": 7884, "\u0120stimul": 7885, "\u0120schwerpunkt": 7886, "\u0120ras": 7887, "\u0120verfolgen": 7888, "schlag": 7889, "gelt": 7890, "\u01202015": 7891, "\u0120rand": 7892, "\u0120legen": 7893, "\u0120restruct": 7894, "\u0120electricity": 7895, "\u0120belong": 7896, "\u0120holz": 7897, "\u0120waters": 7898, "\u0120mittl": 7899, "\u0120thousands": 7900, "using": 7901, "\u0120discrimination": 7902, "meld": 7903, "\u0120len": 7904, "box": 7905, "\u0120helpful": 7906, "\u0120says": 7907, "\u0120schre": 7908, "spr\u00c3\u00bc": 7909, "ranken": 7910, "\u0120unless": 7911, "\u0120parallel": 7912, "endet": 7913, "\u0120consideration": 7914, "\u0120mak": 7915, "kommissar": 7916, "artigen": 7917, "\u0120irgend": 7918, "ilien": 7919, "ingu": 7920, "\u0120continues": 7921, "\u0120sale": 7922, "\u0120zuletzt": 7923, "\u0120significantly": 7924, "stieg": 7925, "effiz": 7926, "f\u00c3\u00bcgen": 7927, "ump": 7928, "\u0120indire": 7929, "\u0120residence": 7930, "\u0120exclusive": 7931, "agraph": 7932, "\u0120zentrale": 7933, "icherungs": 7934, "\u0120attempt": 7935, "\u0120vorgeschlagenen": 7936, "\u0120leistungen": 7937, "gesellschaften": 7938, "\u0120combined": 7939, "\u0120ries": 7940, "iegen": 7941, "\u0120europeans": 7942, "\u0120easier": 7943, "\u0120franz\u00c3\u00b6sischen": 7944, "\u0120closer": 7945, "\u0120yourself": 7946, "\u0120motiv": 7947, "\u0120pas": 7948, "\u0120l\u00c3\u00b6sen": 7949, "\u0120perspective": 7950, "leun": 7951, "\u0120jeweils": 7952, "\u0120diss": 7953, "\u0120browser": 7954, "\u0120costa": 7955, "\u0120garten": 7956, "\u0120wik": 7957, "\u0120gain": 7958, "\u0120turk": 7959, "wagen": 7960, "gew\u00c3\u00b6hn": 7961, "\u0120semin": 7962, "wander": 7963, "ado": 7964, "\u0120facilitate": 7965, "ault": 7966, "\u0120evening": 7967, "\u00c3\u00a4u\u00c3\u0141": 7968, "\u0120nacht": 7969, "\u0120drogen": 7970, "\u0120whom": 7971, "\u0120februar": 7972, "\u0120partei": 7973, "\u0120elegant": 7974, "oon": 7975, "\u0120applies": 7976, "kor": 7977, "\u0120intensiv": 7978, "\u0120immediate": 7979, "mitgliedstaaten": 7980, "\u0120plug": 7981, "\u0120upgra": 7982, "nam": 7983, "\u0120teilnehmen": 7984, "\u0120differences": 7985, "etze": 7986, "\u0120ergeben": 7987, "\u0120dee": 7988, "rary": 7989, "\u0120dramat": 7990, "\u0120gro\u00c3\u0141britann": 7991, "ih": 7992, "\u0120speech": 7993, "\u0120played": 7994, "j\u00c3\u00a4hrigen": 7995, "arma": 7996, "\u0120siehe": 7997, "etten": 7998, "01": 7999, "\u0120spend": 8000, "\u0120votes": 8001, "free": 8002, "urses": 8003, "\u0120mm": 8004, "\u0120idee": 8005, "\u0120councils": 8006, "\u0120dritte": 8007, "iser": 8008, "\u0120regelungen": 8009, "\u0120informieren": 8010, "\u0120teilweise": 8011, "\u0120erstellt": 8012, "\u0120ack": 8013, "\u0120notice": 8014, "\u0120erheblich": 8015, "\u0120bade": 8016, "ae": 8017, "bern": 8018, "\u0120lauf": 8019, "\u0120gesche": 8020, "mode": 8021, "\u0120fel": 8022, "\u0120schwierig": 8023, "teten": 8024, "\u0120infringement": 8025, "\u0120finanzierungs": 8026, "iary": 8027, "\u0120geplan": 8028, "\u0120switzerland": 8029, "\u0120beziehen": 8030, "\u0120armen": 8031, "pl\u00c3\u00a4tzen": 8032, "gebaut": 8033, "isierte": 8034, "\u0120hinweisen": 8035, "\u0120benutzt": 8036, "\u0120benutzen": 8037, "\u0120tut": 8038, "m\u00c3\u00b6gen": 8039, "2000": 8040, "\u0120hilfs": 8041, "\u0120unit": 8042, "\u0120withdra": 8043, "\u0120positiv": 8044, "\u0120fried": 8045, "\u0120k\u00c3\u00bcnftigen": 8046, "\u0120hersteller": 8047, "\u0120gef\u00c3\u00b6rdert": 8048, "repr": 8049, "\u0120session": 8050, "\u0120entschlie\u00c3\u0141ungs": 8051, "\u0120greek": 8052, "annen": 8053, "\u0120trave": 8054, "\u0120tu": 8055, "\u0120tie": 8056, "\u0120fly": 8057, "\u0120weiterer": 8058, "\u0120playing": 8059, "\u0120sym": 8060, "m\u00c3\u00a4rkte": 8061, "aria": 8062, "\u0120madrid": 8063, "\u0120scen": 8064, "\u0120lands": 8065, "\u0120items": 8066, "\u0120collabor": 8067, "via": 8068, "\u0120sicherlich": 8069, "\u0120vorbereitung": 8070, "\u0120navig": 8071, "iling": 8072, "entlich": 8073, "\u0120sauna": 8074, "\u0120contem": 8075, "\u0120atlant": 8076, "time": 8077, "\u0120liqu": 8078, "\u0120photos": 8079, "\u0120individuals": 8080, "\u0120autonom": 8081, "\u0120herausforderung": 8082, "icks": 8083, "arta": 8084, "gewicht": 8085, "quem": 8086, "\u0120sweden": 8087, "\u0120reception": 8088, "\u0120zugleich": 8089, "hner": 8090, "\u0120herstellung": 8091, "\u0120klare": 8092, "\u0120dun": 8093, "\u0120exercise": 8094, "\u0120braucht": 8095, "\u0120schn": 8096, "\u0120bag": 8097, "\u0120background": 8098, "33": 8099, "\u0120willkommen": 8100, "\u0120dealing": 8101, "\u0120beteiligt": 8102, "\u0120betriebs": 8103, "imb": 8104, "\u0120precisely": 8105, "\u0120proportion": 8106, "\u0120allowing": 8107, "utzung": 8108, "\u0120executive": 8109, "\u0120zuvor": 8110, "ctor": 8111, "aly": 8112, "\u0120approxim": 8113, "\u0120achieving": 8114, "\u0120produkten": 8115, "\u0120\u00c3\u00bcb": 8116, "\u0120meter": 8117, "\u0120suffer": 8118, "\u0120referend": 8119, "ienen": 8120, "\u0120priorit\u00c3\u00a4t": 8121, "\u0120erkennt": 8122, "herr": 8123, "\u0120poker": 8124, "\u0120tabled": 8125, "\u0120uses": 8126, "\u0120imper": 8127, "\u0120zweifel": 8128, "\u0120proceedings": 8129, "sized": 8130, "\u0120translation": 8131, "\u0120salz": 8132, "immungen": 8133, "\u0120absicht": 8134, "\u0120department": 8135, "steuer": 8136, "\u0120kindern": 8137, "\u0120best\u00c3\u00a4tigt": 8138, "\u0120exactly": 8139, "orient": 8140, "\u0120akzeptieren": 8141, "yer": 8142, "\u0120voice": 8143, "stimmung": 8144, "ael": 8145, "\u0120bol": 8146, "club": 8147, "\u0120cheap": 8148, "\u0120freue": 8149, "park": 8150, "\u0120gelangen": 8151, "\u0120telephone": 8152, "\u0120angesprochen": 8153, "\u0120gericht": 8154, "jo": 8155, "\u0120pact": 8156, "\u0120hoffen": 8157, "\u0120ma\u00c3\u0141nahme": 8158, "letter": 8159, "\u0120hindern": 8160, "wirken": 8161, "\u0120kooper": 8162, "\u0120barroso": 8163, "orgt": 8164, "\u0120acknow": 8165, "\u0120spac": 8166, "\u0120imag": 8167, "\u0120beschleun": 8168, "itel": 8169, "ausschusses": 8170, "handlung": 8171, "ky": 8172, "\u00c3\u00a4ndischen": 8173, "\u0120defiz": 8174, "\u0120laid": 8175, "\u0120television": 8176, "\u0120nar": 8177, "\u0120camera": 8178, "kat": 8179, "\u0120cred": 8180, "pol": 8181, "\u0120cards": 8182, "\u0120considers": 8183, "\u0120\u00c3\u00bcberpr\u00c3\u00bcfen": 8184, "stands": 8185, "\u0120sorgf": 8186, "44": 8187, "\u0120paragraph": 8188, "trans": 8189, "\u0120founded": 8190, "\u0120furn": 8191, "andidaten": 8192, "\u0120appeal": 8193, "\u0120dvd": 8194, "\u0120kompon": 8195, "\u0120grunds\u00c3\u00a4tz": 8196, "\u0120exhibition": 8197, "ova": 8198, "\u0120remind": 8199, "anb": 8200, "amb": 8201, "\u0120numbers": 8202, "\u0120owners": 8203, "\u0120satellite": 8204, "zwischen": 8205, "\u0120peaceful": 8206, "\u0120verfolgt": 8207, "\u0120betrachtet": 8208, "\u0120steigen": 8209, "\u0120functioning": 8210, "\u0120risiken": 8211, "\u0120territorial": 8212, "\u0120konk": 8213, "\u0120estate": 8214, "\u0120erleben": 8215, "\u0120tasks": 8216, "\u0120besseren": 8217, "\u0120ber\u00c3\u00bccksichtigung": 8218, "\u0120sides": 8219, "k\u00c3\u00bcnd": 8220, "\u0120unan": 8221, "ray": 8222, "mechan": 8223, "\u0120php": 8224, "\u0120entertain": 8225, "\u0120arbeitslosigkeit": 8226, "\u0120estim": 8227, "either": 8228, "\u0120intention": 8229, "\u0120haltung": 8230, "\u0120trotzdem": 8231, "hre": 8232, "\u0120minute": 8233, "\u0120impress": 8234, "ny": 8235, "\u0120leute": 8236, "wachstum": 8237, "\u0120photograph": 8238, "\u0120sofern": 8239, "\u0120steuern": 8240, "achtet": 8241, "\u0120betont": 8242, "embly": 8243, "organisationen": 8244, "svorsitz": 8245, "\u0120(+": 8246, "\u0120ow": 8247, "\u0120equality": 8248, "nehmern": 8249, "\u0120spending": 8250, "\u0120database": 8251, "\u0120irish": 8252, "immern": 8253, "\u0120refle": 8254, "\u0120veget": 8255, "\u0120institute": 8256, "\u0120streit": 8257, "\u0120diesbe": 8258, "\u0120acts": 8259, "\u0120manch": 8260, "\u0120angeh\u00c3\u00b6r": 8261, "\u0120iv": 8262, "75": 8263, "\u0120;": 8264, "\u0120behav": 8265, "ureau": 8266, "\u0120follows": 8267, "\u0120effizienz": 8268, "\u0120st\u00c3\u00a4dte": 8269, "siehe": 8270, "\u0120technological": 8271, "\u0120n\u00c3\u00a4chste": 8272, "rich": 8273, "\u0120jene": 8274, "\u0120angel": 8275, "greif": 8276, "\u0120sorge": 8277, "\u0120presse": 8278, "\u012036": 8279, "\u0120unterschiedliche": 8280, "\u0120fraud": 8281, "\u0120festgestellt": 8282, "\u0120dangerous": 8283, "\u0120organization": 8284, "politischen": 8285, "\u0120mik": 8286, "\u0120achtung": 8287, "\u0120geleistet": 8288, "ifications": 8289, "\u0120bear": 8290, "\u0120except": 8291, "ologische": 8292, "\u0120refugees": 8293, "\u0120balt": 8294, "\u0120gepr\u00c3\u00bc": 8295, "bew": 8296, "\u0120independence": 8297, "36": 8298, "\u0120formen": 8299, "\u0120ging": 8300, "\u0120jac": 8301, "rate": 8302, "\u0120larger": 8303, "\u0120gekommen": 8304, "99": 8305, "\u0120bush": 8306, "\u0120inhalte": 8307, "aschine": 8308, "\u0120luxemburg": 8309, "zep": 8310, "\u0120angene": 8311, "\u0120ambitious": 8312, "\u0120expens": 8313, "\u0120erfordern": 8314, "\u0120extended": 8315, "\u0120politischer": 8316, "\u0120completed": 8317, "\u0120engineering": 8318, "categories": 8319, "\u0120trib": 8320, "\u0120continuing": 8321, "\u0120guarantees": 8322, "\u0120organiz": 8323, "\u0120eingesch": 8324, "\u0120gipfel": 8325, "n\u00c3\u00bc": 8326, "38": 8327, "ci": 8328, "\u0120forget": 8329, "\u0120participants": 8330, "\u0120advice": 8331, "\u0120umweltschutz": 8332, "\u0120gave": 8333, "\u0120einiger": 8334, "\u0120served": 8335, "\u0120speaking": 8336, "\u0120belgium": 8337, "\u0120premier": 8338, "\u0120route": 8339, "\u0120relate": 8340, "\u0120verwe": 8341, "\u0120verst\u00c3\u00a4rkt": 8342, "hiel": 8343, "leihen": 8344, "\u0120europ\u00c3\u00a4er": 8345, "\u0120w\u00c3\u00a4hrung": 8346, "\u0120meeres": 8347, "gence": 8348, "idential": 8349, "\u0120introduce": 8350, "ruf": 8351, "\u0120h\u00c3\u00bc": 8352, "\u0120alte": 8353, "\u0120shops": 8354, "\u0120finanzen": 8355, "ader": 8356, "\u0120grunds\u00c3\u00a4tze": 8357, "\u0120malta": 8358, "\u0120schlie\u00c3\u0141en": 8359, "\u0120models": 8360, "num": 8361, "gem\u00c3\u00a4\u00c3\u0141": 8362, "\u0120unterkategorien": 8363, "\u0120datenschutz": 8364, "\u0120noted": 8365, "\u0120anyone": 8366, "umin": 8367, "\u0120drink": 8368, "\u0120disease": 8369, "sichts": 8370, "vertre": 8371, "quality": 8372, "\u0120luxur": 8373, "\u0120bequem": 8374, "\u0120verfahrens": 8375, "las": 8376, "handlungen": 8377, "r\u00c3\u00bcst": 8378, "\u0120cab": 8379, "esented": 8380, "ibl": 8381, "\u00c3\u00a4lfte": 8382, "\u0120erw\u00c3\u00a4hnt": 8383, "actions": 8384, "\u0120vulner": 8385, "\u0120pr\u00c3\u00a4z": 8386, "chtigt": 8387, "road": 8388, "\u0120gefordert": 8389, "\u0120durchschnitt": 8390, "\u0120letter": 8391, "\u0120factors": 8392, "chem": 8393, "\u0120angriff": 8394, "\u0120manage": 8395, "\u0120griech": 8396, "{{": 8397, "\u0120paket": 8398, "icking": 8399, "\u0120paul": 8400, "\u0120adequate": 8401, "\u0120neither": 8402, "\u0120anderes": 8403, "\u0120copyr": 8404, "unsten": 8405, "\u0120freiwill": 8406, "\u0120revision": 8407, "\u0120miteinander": 8408, "\u0120iii": 8409, "\u0120fuel": 8410, "\u0120mini": 8411, "\u0120schulden": 8412, "\u0120breit": 8413, "\u0120fahren": 8414, "\u0120obviously": 8415, "\u0120ungleich": 8416, "\u0120teilnehmer": 8417, "\u0120daraus": 8418, "\u0120prospect": 8419, "\u0120umfassenden": 8420, "\u0120assembly": 8421, "abilities": 8422, "\u0120ordnungs": 8423, "ifiziert": 8424, "\u0120freie": 8425, "\u0120hands": 8426, "\u0120finde": 8427, "ala": 8428, "\u0120gesprochen": 8429, "app": 8430, "\u0120advance": 8431, "\u0120contrary": 8432, "\u0120eindruck": 8433, "\u0120houses": 8434, "\u0120anpassung": 8435, "\u0120?": 8436, "\u0120approval": 8437, "\u0120registered": 8438, "\u0120assozi": 8439, "amente": 8440, "\u0120suche": 8441, "\u0120wichtigste": 8442, "\u0120deficit": 8443, "\u0120yes": 8444, "\u0120lesung": 8445, "\u0120hardware": 8446, "\u0120leb": 8447, "\u0120advertising": 8448, "\u0120americ": 8449, "\u0120machines": 8450, "figur": 8451, "\u0120lobby": 8452, "ittel": 8453, "european": 8454, "\u0120toler": 8455, "\u0120behinder": 8456, "verw": 8457, "ervice": 8458, "\u0120bureau": 8459, "\u0120scale": 8460, "\u0120straf": 8461, "sch\u00c3\u00b6": 8462, "\u0120renewable": 8463, "\u0120frankfurt": 8464, "\u0120..": 8465, "ound": 8466, "09": 8467, "pointed": 8468, "auern": 8469, "\u0120immobilien": 8470, "ee": 8471, "\u0120ausdr\u00c3\u00bccklich": 8472, "\u0120gender": 8473, "iano": 8474, "\u0120possibilities": 8475, "\u0120destro": 8476, "\u0120\u00c3\u00bcbertragen": 8477, "ensus": 8478, "etragen": 8479, "\u0120holding": 8480, "\u0120taxation": 8481, "iets": 8482, "\u0120mechanisms": 8483, "\u0120wonderful": 8484, "\u0120forth": 8485, "iler": 8486, "\u0120\u00c3\u00a4lter": 8487, "\u0120chap": 8488, "\u0120spielt": 8489, "\u0120difference": 8490, "\u00c3\u00a4umen": 8491, "\u0120metres": 8492, "\u0120accounts": 8493, "\u0120vien": 8494, "\u0120sell": 8495, "\u0120academ": 8496, "\u0120planned": 8497, "46": 8498, "\u0120jung": 8499, "\u0120schreiben": 8500, "\u0120elimin": 8501, "uts": 8502, "\u0120bulgaria": 8503, "emission": 8504, "ema": 8505, "elte": 8506, "\u0120jungen": 8507, "\u0120relativ": 8508, "\u0120karte": 8509, "\u0120erl\u00c3\u00a4": 8510, "\u0120wechsel": 8511, "\u0120balanced": 8512, "\u0120genuine": 8513, "\u0120strongly": 8514, "2006": 8515, "\u0120abwe": 8516, "\u0120proc": 8517, "l\u00c3\u00b6sung": 8518, "tex": 8519, "eig": 8520, "\u0120failed": 8521, "\u0120funktioniert": 8522, "\u0120konz": 8523, "ras": 8524, "\u0120berufs": 8525, "\u0120nachhaltigen": 8526, "\u0120dete": 8527, "\u0120menge": 8528, "\u0120preparation": 8529, "ffend": 8530, "\u0120occur": 8531, "\u0120snow": 8532, "\u0120entirely": 8533, "itten": 8534, "\u0120anlagen": 8535, "\u0120suc": 8536, "\u0120species": 8537, "\u0120austausch": 8538, "\u0120vizepr\u00c3\u00a4sident": 8539, "zo": 8540, "\u0120spacious": 8541, "\u0120gewinn": 8542, "\u0120devices": 8543, "iche": 8544, "28": 8545, "\u0120subsequ": 8546, "\u0120ben\u00c3\u00b6tigt": 8547, "\u0120ausz": 8548, "hor": 8549, "\u0120mov": 8550, "\u0120door": 8551, "opol": 8552, "\u0120recommendation": 8553, "bad": 8554, "itu": 8555, "gestimmt": 8556, "prozesses": 8557, "\u0120humanit\u00c3\u00a4re": 8558, "\u0120availability": 8559, "\u0120match": 8560, "atlant": 8561, "\u0120funktionen": 8562, "\u0120kapaz": 8563, "ickt": 8564, "bereiche": 8565, "\u0120sitting": 8566, "\u0120sle": 8567, "\u0120binding": 8568, "\u0120\u00c3\u00bcbernahme": 8569, "\u0120verbundenen": 8570, "wohner": 8571, "\u0120ern\u00c3\u00a4hr": 8572, "95": 8573, "\u0120erh\u00c3\u00b6ht": 8574, "\u0120rum\u00c3\u00a4nien": 8575, "\u0120wire": 8576, "\u0120mitteln": 8577, "bildungs": 8578, "\u0120description": 8579, "\u0120empfehlung": 8580, "\u0120hierzu": 8581, "\u0120verringerung": 8582, "\u0120zeich": 8583, "\u0120gr\u00c3\u00b6\u00c3\u0141eren": 8584, "karten": 8585, "tzeit": 8586, "\u0120addressed": 8587, "\u0120erwart": 8588, "abilit\u00c3\u00a4t": 8589, "\u0120sieben": 8590, "\u0120profess": 8591, "\u0120forderung": 8592, "\u0120junge": 8593, "\u0120limits": 8594, "tv": 8595, "\u0120beauty": 8596, "\u0120requested": 8597, "\u0120bern": 8598, "\u0120--": 8599, "\u0120besucher": 8600, "\u0120verlassen": 8601, "\u0120\u00c3\u00bcbernachten": 8602, "ena": 8603, "\u0120cuis": 8604, "\u0120enables": 8605, "\u0120aktionen": 8606, "\u0120tourismus": 8607, "\u0120applicable": 8608, "\u0120kyoto": 8609, "\u0120worksh": 8610, "plant": 8611, "\u0120registration": 8612, "\u0120einsetzen": 8613, "\u0120went": 8614, "\u0120spent": 8615, "\u0120politics": 8616, "\u0120rang": 8617, "\u0120attractive": 8618, "\u0120sou": 8619, "\u0120decla": 8620, "\u0120informiert": 8621, "igerung": 8622, "\u0120zahlungs": 8623, "umping": 8624, "active": 8625, "isory": 8626, "\u0120innovations": 8627, "\u0120jederzeit": 8628, "\u0120gro\u00c3\u0141britannien": 8629, "\u0120fill": 8630, "\u0120gern": 8631, "\u0120erkl\u00c3\u00a4ren": 8632, "\u0120800": 8633, "wanderung": 8634, "tenance": 8635, "\u0120ministry": 8636, "wissen": 8637, "\u0120erleichtern": 8638, "\u0120mold": 8639, "qual": 8640, "\u0120reisen": 8641, "\u0120automob": 8642, "\u0120aufgefordert": 8643, "\u0120indien": 8644, "\u0120memory": 8645, "teuer": 8646, "projekt": 8647, "\u0120urgent": 8648, "\u0120seriously": 8649, "\u0120claims": 8650, "\u0120chamber": 8651, "down": 8652, "\u0120fro": 8653, "\u0120parlamentar": 8654, "\u0120incom": 8655, "\u0120besorg": 8656, "\u0120zivilgesellschaft": 8657, "ax": 8658, "\u0120combination": 8659, "\u0120st\u00c3\u00a4ndig": 8660, "\u0120thinking": 8661, "\u0120studien": 8662, "\u0120succeed": 8663, "\u0120convenient": 8664, "\u0120ausreichend": 8665, "\u0120maschinen": 8666, "\u0120schweden": 8667, "\u0120globalisierung": 8668, "\u0120valley": 8669, "\u0120ma\u00c3\u0141e": 8670, "igkeits": 8671, "oms": 8672, "brauch": 8673, "\u0120samm": 8674, "\u0120welcher": 8675, "\u0120pilot": 8676, "schau": 8677, "\u0120alliance": 8678, "\u0120solcher": 8679, "\u0120constitutional": 8680, "}}": 8681, "\u0120privile": 8682, "2010": 8683, "oring": 8684, "zeichnete": 8685, "\u0120cyprus": 8686, "\u0120musl": 8687, "\u0120supple": 8688, "\u0120nation": 8689, "technik": 8690, "\u0120fruit": 8691, "schafts": 8692, "\u0120deswegen": 8693, "\u0120gegenw\u00c3\u00a4rtigen": 8694, "lichten": 8695, "\u0120starke": 8696, "\u0120britischen": 8697, "ypern": 8698, "\u0120reprodu": 8699, "\u0120contracts": 8700, "\u0120ped": 8701, "lebr": 8702, "\u0120lift": 8703, "\u0120remo": 8704, "\u0120betonen": 8705, "ma\u00c3\u0141en": 8706, "\u0120identified": 8707, "\u0120geschm": 8708, "ikal": 8709, "\u0120krisen": 8710, "lan": 8711, "\u0120cub": 8712, "\u00c3\u00bcste": 8713, "\u0120reicht": 8714, "\u0120pr\u00c3\u00bcf": 8715, "\u0120wien": 8716, "\u0120gem\u00c3\u00bct": 8717, "\u01201991": 8718, "\u0120gew\u00c3\u00a4hrt": 8719, "\u0120d\u00c3\u00bcrfte": 8720, "zeigen": 8721, "\u0120kulturellen": 8722, "tele": 8723, "\u0120niemand": 8724, "\u0120gaz": 8725, "seite": 8726, "\u0120gen\u00c3\u00bc": 8727, "\u0120flash": 8728, "\u0120appears": 8729, "\u0120unternommen": 8730, "\u0120vorliegenden": 8731, "\u0120gewinnen": 8732, "\u0120prepare": 8733, "ida": 8734, "\u0120autor": 8735, "\u0120election": 8736, "\u0120bed\u00c3\u00bcrfnisse": 8737, "\u0120interface": 8738, "\u0120zielen": 8739, "\u0120buffet": 8740, "\u0120wil": 8741, "ingesch": 8742, "\u0120lt": 8743, "\u0120banking": 8744, "\u0120austrian": 8745, "\u0120verh": 8746, "05": 8747, "\u0120typical": 8748, "\u0120globale": 8749, "krieg": 8750, "\u0120cra": 8751, "hlt": 8752, "\u0120statements": 8753, "idung": 8754, "l\u00c3\u00bcck": 8755, "\u0120pharma": 8756, "\u0120bringing": 8757, "dep": 8758, "\u0120hungary": 8759, "\u0120nachfolgend": 8760, "\u0120beds": 8761, "\u0120highlight": 8762, "\u0120safeguard": 8763, "\u0120condem": 8764, "\u0120occasion": 8765, "\u0120taste": 8766, "\u0120emergency": 8767, "\u0120hingewiesen": 8768, "\u0120represented": 8769, "\u0120horizont": 8770, "dex": 8771, "\u0120zug\u00c3\u00a4nglich": 8772, "produkte": 8773, "\u0120durchaus": 8774, "wenden": 8775, "uit": 8776, "\u0120requests": 8777, "\u0120\u00c3\u00bcberall": 8778, "\u0120restructuring": 8779, "econom": 8780, "\u0120strukturfonds": 8781, "\u0120accur": 8782, "\u0120gutes": 8783, "\u0120sched": 8784, "\u0120poly": 8785, "\u0120improvements": 8786, "kel": 8787, "war": 8788, "\u0120drittl\u00c3\u00a4ndern": 8789, "\u0120gewiss": 8790, "\u0120penalt": 8791, "hle": 8792, "\u0120ideen": 8793, "\u0120glass": 8794, "\u0120drawn": 8795, "\u0120eurozone": 8796, "erved": 8797, "\u0120inten": 8798, "\u0120mountains": 8799, "\u0120carefully": 8800, "\u0120enormous": 8801, "\u0120unf": 8802, "\u0120stoff": 8803, "ura": 8804, "\u0120euros": 8805, "\u0120wirkung": 8806, "beh\u00c3\u00b6rde": 8807, "\u0120strategies": 8808, "\u0120sehens": 8809, "\u0120aspekt": 8810, "\u0120entitled": 8811, "\u00c3\u00b6der": 8812, "\u0120beraten": 8813, "\u0120flag": 8814, "raums": 8815, "\u0120courts": 8816, "\u0120datei": 8817, "\u0120vehicle": 8818, "icians": 8819, "\u0120becomes": 8820, "\u0120seien": 8821, "\u0120arbeitet": 8822, "\u0120teilnahme": 8823, "\u0120slovak": 8824, "34": 8825, "\u0120haupts\u00c3\u00a4chlich": 8826, "liegt": 8827, "\u0120fem": 8828, "\u0120strategien": 8829, "\u0120mandate": 8830, "\u0120ergriffen": 8831, "\u0120coffee": 8832, "\u0120zeiten": 8833, "\u0120privacy": 8834, "\u0120welcomed": 8835, "\u0120architecture": 8836, "\u0120cuisine": 8837, "gien": 8838, "\u0120connected": 8839, "\u00c3\u00bctze": 8840, "spart": 8841, "\u0120experienced": 8842, "\u0120problemen": 8843, "\u0120gestalten": 8844, "\u0120length": 8845, "\u0120m\u00c3\u00bcs": 8846, "\u0120videos": 8847, "iziert": 8848, "\u0120ball": 8849, "\u0120yester": 8850, "\u0120beachten": 8851, "\u0120dateien": 8852, "\u0120manufacturers": 8853, "\u0120ticket": 8854, "\u0120oste": 8855, "\u0120amerikanischen": 8856, "\u0120smo": 8857, "\u0120g\u00c3\u00bclt": 8858, "\u0120firms": 8859, "\u0120festlegung": 8860, "\u0120n\u00c3\u00a4her": 8861, "\u0120substances": 8862, "\u0120achievement": 8863, "\u0120teams": 8864, "\u0120moving": 8865, "\u0120qualit": 8866, "\u0120sar": 8867, "\u0120nearly": 8868, "\u0120button": 8869, "\u0120maintenance": 8870, "det": 8871, "\u0120voc": 8872, "\u0120todes": 8873, "\u0120incent": 8874, "\u0120patienten": 8875, "\u0120beiz": 8876, "\u0120sicherstellen": 8877, "ategory": 8878, "\u0120exceed": 8879, "\u0120j\u00c3\u00a4hrlich": 8880, "\u0120angezeigt": 8881, "\u0120operate": 8882, "\u0120t\u00c3\u00a4tigkeiten": 8883, "\u0120stabilit\u00c3\u00a4ts": 8884, "eiten": 8885, "igrants": 8886, "sper": 8887, "nor": 8888, "\u0120experten": 8889, "\u0120iso": 8890, "\u0120offensichtlich": 8891, "service": 8892, "26": 8893, "\u0120treten": 8894, "\u0120diversity": 8895, "seh": 8896, "\u0120stra\u00c3\u0141e": 8897, "\u0120forderungen": 8898, "fle": 8899, "\u0120pred": 8900, "\u0120unabh\u00c3\u00a4ngigkeit": 8901, "\u0120lizenz": 8902, "fers": 8903, "\u0120articles": 8904, "cin": 8905, "\u0120bestandteil": 8906, "\u0120niveau": 8907, "ilst": 8908, "\u0120ausbau": 8909, "\u0120testing": 8910, "\u0120aktion": 8911, "\u0120manufacturing": 8912, "\u0120dient": 8913, "\u0120airlines": 8914, "\u0120pill": 8915, "\u0120od": 8916, "\u0120jean": 8917, "governmental": 8918, "\u0120sto": 8919, "af": 8920, "hebung": 8921, "\u0120covers": 8922, "\u0120koh\u00c3\u00a4sions": 8923, "\u0120pin": 8924, "jected": 8925, "\u0120ausges": 8926, "\u0120ratsvorsitz": 8927, "\u0120coher": 8928, "kop": 8929, "\u0120urteil": 8930, "\u0120command": 8931, "\u0120palace": 8932, "\u0120iron": 8933, "\u0120zentralbank": 8934, "\u0120n\u00c3\u00bctz": 8935, "\u0120mrd": 8936, "\u0120calling": 8937, "\u0120prohib": 8938, "\u0120aircraft": 8939, "\u0120pleasant": 8940, "\u0120hafen": 8941, "mittlung": 8942, "\u0120reven": 8943, "\u0120names": 8944, "\u0120celebr": 8945, "\u0120dynamic": 8946, "\u0120sah": 8947, "\u0120outstanding": 8948, "\u0120vielmehr": 8949, "\u0120hostel": 8950, "\u0120courses": 8951, "\u0120titel": 8952, "\u0120newsletter": 8953, "\u0120\u00c3\u00bcbereinkommen": 8954, "\u0120gepr\u00c3\u00bcft": 8955, "90": 8956, "\u0120inzwischen": 8957, "grenzen": 8958, "\u0120gew\u00c3\u00bcn": 8959, "ipp": 8960, "versch": 8961, "\u0120arrival": 8962, "\u0120geschehen": 8963, "dule": 8964, "\u0120nennen": 8965, "attform": 8966, "\u0120born": 8967, "\u0120reliable": 8968, "quir": 8969, "\u0120agentur": 8970, "\u0120packages": 8971, "\u0120budgets": 8972, "r\u00c3\u00a4nkt": 8973, "\u0120croatia": 8974, "\u0120whilst": 8975, "\u0120boot": 8976, "ries": 8977, "\u0120zypern": 8978, "\u0120expans": 8979, "\u0120verloren": 8980, "absicht": 8981, "\u0120uneingesch": 8982, "\u0120liberalisierung": 8983, "\u0120primary": 8984, "\u0120netzwerk": 8985, "\u0120stands": 8986, "itage": 8987, "\u0120pure": 8988, "\u0120konkurr": 8989, "\u0120manchmal": 8990, "\u0120h\u00c3\u00a4lfte": 8991, "\u0120schl\u00c3\u00a4gt": 8992, "f\u00c3\u00a4hig": 8993, "\u0120hospital": 8994, "\u0120washing": 8995, "\u0120zufolge": 8996, "\u0120\u00c3\u00a4u\u00c3\u0141er": 8997, "kam": 8998, "\u0120sogen": 8999, "\u0120vess": 9000, "\u0120erh\u00c3\u00b6hung": 9001, "mes": 9002, "\u0120mitgliedern": 9003, "\u0120geschle": 9004, "\u0120effektiv": 9005, "ador": 9006, "\u0120proposes": 9007, "\u0120ue": 9008, "lager": 9009, "\u0120ram": 9010, "\u0120webseite": 9011, "\u0120belgien": 9012, "\u0120erfordert": 9013, "\u0120centres": 9014, "\u0120gegr\u00c3\u00bcndet": 9015, "\u0120situations": 9016, "\u0120tenn": 9017, "\u0120sla": 9018, "igern": 9019, "regeln": 9020, "austausch": 9021, "\u0120klimawandel": 9022, "zne": 9023, "\u0120alex": 9024, "hrase": 9025, "**": 9026, "\u0120compensation": 9027, "\u0120aus\u00c3\u00bc": 9028, "\u0120weapons": 9029, "\u0120reasonable": 9030, "\u0120anwendungen": 9031, "\u0120hour": 9032, "\u0120reaktion": 9033, "\u0120palestinian": 9034, "imed": 9035, "\u0120castle": 9036, "\u0120drugs": 9037, "48": 9038, "\u0120impossible": 9039, "\u0120diskutieren": 9040, "era": 9041, "\u0120wishes": 9042, "\u0120dal": 9043, "\u0120uni": 9044, "ield": 9045, "\u0120examples": 9046, "ze\u00c3\u0141": 9047, "\u0120latin": 9048, "\u0120vielzahl": 9049, "\u0120restrictions": 9050, "\u0120store": 9051, "\u0120zugunsten": 9052, "\u0120sagt": 9053, "\u0120extension": 9054, "\u0120spezielle": 9055, "\u0120biggest": 9056, "\u0120frag": 9057, "\u0120verabschiedet": 9058, "\u0120wollte": 9059, "\u0120michael": 9060, "21": 9061, "\u0120langen": 9062, "\u0120krimin": 9063, "\u0120gesch\u00c3\u00bctzt": 9064, "umn": 9065, "sein": 9066, "\u0120obligation": 9067, "\u0120ausnahme": 9068, "\u0120ehrge": 9069, "metho": 9070, "ssekret\u00c3\u00a4r": 9071, "\u0120ausland": 9072, "\u0120category": 9073, "\u0120engag": 9074, "card": 9075, "\u0120resulting": 9076, "\u0120niedrig": 9077, "\u0120vorlegen": 9078, "isted": 9079, "\u0120forts": 9080, "\u0120exports": 9081, "miss": 9082, "\u0120diagn": 9083, "\u0120elemente": 9084, "\u0120schools": 9085, "iques": 9086, "\u0120underg": 9087, "\u0120pers\u00c3\u00b6nlich": 9088, "\u0120consistent": 9089, "\u0120expertise": 9090, "ago": 9091, "\u0120m\u00c3\u00b6glichen": 9092, "\u0120michel": 9093, "\u0120wesentliche": 9094, "\u0120wenigen": 9095, "\u0120t\u00c3\u00a4glich": 9096, "\u0120shower": 9097, "\u0120harm": 9098, "\u0120dedicated": 9099, "stoffen": 9100, "\u0120ehrgeiz": 9101, "ral": 9102, "\u0120si": 9103, "\u0120released": 9104, "\u0120umstruktur": 9105, "\u0120cer": 9106, "amin": 9107, "\u0120helping": 9108, "\u0120betr\u00c3\u00a4cht": 9109, "wortet": 9110, "\u0120saint": 9111, "\u0120k\u00c3\u00bcrzlich": 9112, "\u0120hinweis": 9113, "\u0120dutch": 9114, "\u0120romant": 9115, "\u0120mp": 9116, "\u0120lounge": 9117, "\u0120berechn": 9118, "\u0120rome": 9119, "\u0120heritage": 9120, "beauftrag": 9121, "\u0120responsibilities": 9122, "nitts": 9123, "\u0120zust\u00c3\u00a4ndig": 9124, "\u0120leistung": 9125, "erei": 9126, "\u0120k\u00c3\u00bcnftig": 9127, "\u0120soweit": 9128, "\u0120bezeichnet": 9129, "\u0120geltenden": 9130, "\u0120behaup": 9131, "\u0120desk": 9132, "uds": 9133, "atik": 9134, "\u0120edition": 9135, "\u0120champ": 9136, "\u0120abgeordnete": 9137, "llung": 9138, "\u0120boost": 9139, "\u0120identify": 9140, "\u0120bras": 9141, "\u0120grundrechte": 9142, "west": 9143, "\u0120mist": 9144, "\u0120ib": 9145, "\u0120swed": 9146, "bur": 9147, "\u0120atom": 9148, "\u0120thor": 9149, "zubauen": 9150, "fare": 9151, "ua": 9152, "\u0120pollution": 9153, "kla": 9154, "\u0120absolut": 9155, "\u0120sonnen": 9156, "\u0120regelm\u00c3\u00a4\u00c3\u0141ig": 9157, "\u0120window": 9158, "paket": 9159, "ew": 9160, "\u0120ath": 9161, "\u0120greatest": 9162, "\u0120schwed": 9163, "licherweise": 9164, "27": 9165, "\u0120einkauf": 9166, "\u0120temporary": 9167, "\u0120kritik": 9168, "\u0120charged": 9169, "\u0120youll": 9170, "ebene": 9171, "general": 9172, "cling": 9173, "\u0120flexibilit\u00c3\u00a4t": 9174, "\u0120copyright": 9175, "\u0120gir": 9176, "iking": 9177, "\u0120s\u00c3\u00a4": 9178, "\u0120erscheint": 9179, "\u0120story": 9180, "\u0120richtigen": 9181, "\u0120bse": 9182, "vereign": 9183, "\u0120unterbreit": 9184, "tte": 9185, "\u0120f\u00c3\u00a4lle": 9186, "\u0120truly": 9187, "\u0120approximately": 9188, "\u0120erzeugnisse": 9189, "\u0120described": 9190, "\u0120jahrzehn": 9191, "bek\u00c3\u00a4mpfung": 9192, "\u00c3\u00a4ten": 9193, "jet": 9194, "\u0120sovereign": 9195, "\u0120befug": 9196, "ibet": 9197, "\u0120consensus": 9198, "\u0120cash": 9199, "\u0120dor": 9200, "\u0120fan": 9201, "spunkt": 9202, "\u0120thereby": 9203, "\u0120gedanken": 9204, "raucher": 9205, "\u0120betrachten": 9206, "gos": 9207, "\u0120physical": 9208, "ula": 9209, "\u0120liability": 9210, "\u0120christian": 9211, "\u0120brut": 9212, "regelung": 9213, "\u0120patients": 9214, "\u0120presentation": 9215, "\u0120magaz": 9216, "\u0120diskriminierung": 9217, "\u0120confirmed": 9218, "\u0120zur\u00c3\u00bcckge": 9219, "\u0120meant": 9220, "publ": 9221, "\u0120stein": 9222, "cluding": 9223, "\u0120obsta": 9224, "\u012048": 9225, "\u0120heimat": 9226, "ashion": 9227, "kunden": 9228, "\u0120nutzer": 9229, "\u0120fremden": 9230, "condition": 9231, "\u0120sanctions": 9232, "f\u00c3\u00a4llen": 9233, "rig": 9234, "\u0120eight": 9235, "\u0120laden": 9236, "\u0120eins": 9237, "\u0120told": 9238, "\u0120kontinu": 9239, "\u0120convinced": 9240, "\u0120sanktionen": 9241, "\u0120mutter": 9242, "kontrolle": 9243, "\u0120ancient": 9244, "\u0120feststellen": 9245, "\u0120w\u00c3\u00bcnsche": 9246, "beziehungen": 9247, "\u0120determined": 9248, "\u0120schuld": 9249, "\u0120bound": 9250, "\u0120gram": 9251, "marks": 9252, "\u0120involving": 9253, "\u0120expression": 9254, "accept": 9255, "\u0120ongoing": 9256, "\u0120qualified": 9257, "\u0120contributions": 9258, "\u0120grounds": 9259, "\u0120imports": 9260, "hus": 9261, "\u00c3\u0141te": 9262, "code": 9263, "\u0120normen": 9264, "\u0120wiss": 9265, "\u0120remove": 9266, "49": 9267, "\u0120multilateral": 9268, "\u0120alp": 9269, "\u0120transaction": 9270, "\u0120trial": 9271, "\u0120enh": 9272, "\u0120anlage": 9273, "station": 9274, "08": 9275, "known": 9276, "\u0120gr\u00c3\u00bcnde": 9277, ".:": 9278, "\u0120changing": 9279, "\u0120index": 9280, "\u0120schlaf": 9281, "\u0120stahl": 9282, "\u0120driving": 9283, "\u0120staatlichen": 9284, "\u0120graf": 9285, "\u0120terrasse": 9286, "\u0120factor": 9287, "\u0120enhance": 9288, "\u0120title": 9289, "\u0120beeintr\u00c3\u00a4": 9290, "\u0120texte": 9291, "\u0120garantiert": 9292, "\u0120cool": 9293, "\u0120surface": 9294, "\u0120investors": 9295, "\u0120bulgarien": 9296, "\u0120luxury": 9297, "olo": 9298, "legte": 9299, "\u0120verhandlungs": 9300, "wirt": 9301, "\u0120annex": 9302, "\u0120afford": 9303, "economic": 9304, "areness": 9305, "\u0120instru": 9306, "\u0120deposit": 9307, "\u0120datenbank": 9308, "\u0120talks": 9309, "initiative": 9310, "ses": 9311, "\u0120eads": 9312, "verh\u00c3\u00a4lt": 9313, "haltet": 9314, "\u0120myself": 9315, "\u0120fen": 9316, "\u0120religious": 9317, "\u0120golden": 9318, "06": 9319, "\u0120multiple": 9320, "\u0120herzlich": 9321, "\u0120turkish": 9322, "\u0120systemat": 9323, "\u0120roll": 9324, "\u0120copy": 9325, "\u0120auseinander": 9326, "\u0120disposal": 9327, "%,": 9328, "\u0120vern\u00c3\u00bcnft": 9329, "\u0120issued": 9330, "\u0120fischer": 9331, "ergie": 9332, "elbe": 9333, "\u0120calcul": 9334, "\u0120eisenbahn": 9335, "stud": 9336, "\u0120roh": 9337, "\u0120suites": 9338, "\u0120peter": 9339, "ingung": 9340, "2001": 9341, "\u0120smart": 9342, "\u0120omb": 9343, "\u0120sensitive": 9344, "\u0120tickets": 9345, "\u00c3\u00a4ck": 9346, "\u0120massive": 9347, "\u0120trends": 9348, "har": 9349, "\u0120merc": 9350, "\u0120ungarn": 9351, "\u0120korea": 9352, "flug": 9353, "\u0120wissenschaftlichen": 9354, "\u0120maria": 9355, "\u0120race": 9356, "\u0120kompl": 9357, "\u0120putting": 9358, "\u0120combating": 9359, "\u0120democrats": 9360, "\u0120aktionsplan": 9361, "stehenden": 9362, "\u0120einzigen": 9363, "\u0120seeking": 9364, "\u0120demokratische": 9365, "\u0120advoc": 9366, "\u0120unaccept": 9367, "\u0120himself": 9368, "\u0120legitim": 9369, "\u0120desire": 9370, "\u0120ultim": 9371, "\u0120stol": 9372, "\u0120stren": 9373, "iating": 9374, "ended": 9375, "\u0120zut": 9376, "\u0120yang": 9377, "\u0120worte": 9378, "\u0120intellect": 9379, "\u0120chosen": 9380, "\u0120damals": 9381, "wers": 9382, "\u0120permit": 9383, "\u0120verhe": 9384, "ciliation": 9385, "\u0120awareness": 9386, "\u0120liquid": 9387, "\u0120letzt": 9388, "\u0120domain": 9389, "\u0120entrepr": 9390, "\u0120royal": 9391, "\u0120creative": 9392, "\u0120umfass": 9393, "dienstleistungen": 9394, "\u0120pflanzen": 9395, "viel": 9396, "lehen": 9397, "\u0120flight": 9398, "\u0120europol": 9399, "haber": 9400, "\u0120positiven": 9401, "03": 9402, "\u0120nachfrage": 9403, "ned": 9404, "modell": 9405, "\u0120laufe": 9406, "\u0120h\u00c3\u00b6ren": 9407, "\u0120besorgnis": 9408, "\u0120beschwer": 9409, "\u0120verste": 9410, "staats": 9411, "\u0120voraussetzung": 9412, "\u0120f\u00c3\u00a4higkeit": 9413, "ehrte": 9414, "\u0120unmittelbar": 9415, "\u0120laufenden": 9416, "\u0120opinions": 9417, "\u0120previously": 9418, "eler": 9419, "ales": 9420, "ateralen": 9421, "\u0120gro\u00c3\u0141es": 9422, "urop\u00c3\u00a4ischen": 9423, "\u0120rapporteurs": 9424, "\u0120unterzeichnet": 9425, "\u0120erwachsen": 9426, "\u0120assum": 9427, "\u0120einfache": 9428, "gro": 9429, "\u0120drop": 9430, "\u0120wealth": 9431, "\u0120\u00c3\u00bcbertrag": 9432, "\u0120verteidigungs": 9433, "zil": 9434, "setzungen": 9435, "bod": 9436, "\u0120reservation": 9437, "\u0120license": 9438, "rik": 9439, "\u0120arms": 9440, "\u0120t\u00c3\u00bcrk": 9441, "\u0120reply": 9442, "\u0120z\u00c3\u00a4hlen": 9443, "\u0120carbon": 9444, "\u0120nic": 9445, "ulted": 9446, "grundlage": 9447, "\u0120unterschiede": 9448, "\u0120album": 9449, "einrichtungen": 9450, "\u0120nearby": 9451, "\u0120weltweiten": 9452, "upp": 9453, "\u0120contained": 9454, "ziele": 9455, "ario": 9456, "\u0120rational": 9457, "\u0120willen": 9458, "\u0120zert": 9459, "\u0120forced": 9460, "\u0120mobilit\u00c3\u00a4t": 9461, "uropa": 9462, "\u0120successfully": 9463, "\u0120retail": 9464, "\u0120artists": 9465, "\u0120kept": 9466, "\u0120glaubw\u00c3\u00bcrd": 9467, "\u0120compatible": 9468, "\u0120quarter": 9469, "gigen": 9470, "uung": 9471, "\u00c3\u00a4tzung": 9472, "\u0120erhebliche": 9473, "\u0120naturally": 9474, "agent": 9475, "\u0120erfre": 9476, "\u0120argent": 9477, "technologie": 9478, "\u0120involvement": 9479, "standards": 9480, "itzen": 9481, "\u0120unable": 9482, "\u0120nahrungsmittel": 9483, "\u0120committees": 9484, "\u0120leadership": 9485, "\u0120nik": 9486, "\u0120weight": 9487, "\u0120reve": 9488, "ascript": 9489, "\u0120brings": 9490, "\u0120italienischen": 9491, "2013": 9492, "kl\u00c3\u00a4rung": 9493, "ifen": 9494, "04": 9495, "\u0120smaller": 9496, "\u0120hamburg": 9497, "\u0120martin": 9498, "\u0120heavy": 9499, "proz": 9500, "\u0120cold": 9501, "\u0120langfristige": 9502, "\u0120enforcement": 9503, "\u0120shar": 9504, "\u0120reagieren": 9505, "\u0120entstanden": 9506, "\u0120count": 9507, "\u0120hauses": 9508, "ista": 9509, "\u0120amounts": 9510, "\u0120keinerlei": 9511, "atis": 9512, "\u0120technik": 9513, "\u0120komment": 9514, "h\u00c3\u00a4us": 9515, "\u0120sonn": 9516, "\u0120ausgewogen": 9517, "\u0120effectiveness": 9518, "\u0120remaining": 9519, "\u0120sp\u00c3\u00a4t": 9520, "\u0120happened": 9521, "\u0120entdeck": 9522, "\u0120eingere": 9523, "\u0120eingeb": 9524, "teed": 9525, "\u0120entwicklungsl\u00c3\u00a4ndern": 9526, "\u0120delivered": 9527, "\u0120einzelne": 9528, "\u0120load": 9529, "\u0120vorgenommen": 9530, "\u0120umzusetzen": 9531, "\u0120befassen": 9532, "\u0120studie": 9533, "\u0120filter": 9534, "\u0120abkommens": 9535, "quellen": 9536, "\u0120passengers": 9537, "\u0120emphasis": 9538, "\u0120f\u00c3\u00bchrte": 9539, "\u0120theat": 9540, "\u0120welchen": 9541, "\u0120kleiner": 9542, "\u0120anliegen": 9543, "\u0120religion": 9544, "ugoslaw": 9545, "mlich": 9546, "hy": 9547, "\u0120vereinbarungen": 9548, "\u0120weiteres": 9549, "\u0120politiker": 9550, "\u0120hoher": 9551, "\u0120eco": 9552, "\u0120letzter": 9553, "\u0120bang": 9554, "96": 9555, "\u0120compr": 9556, "\u0120swe": 9557, "\u0120device": 9558, "\u0120verringern": 9559, "zust": 9560, "iertes": 9561, "\u0120verst\u00c3\u00a4ndnis": 9562, "\u0120rechten": 9563, "\u0120diseases": 9564, "\u0120recy": 9565, "\u0120beaches": 9566, "\u0120javascript": 9567, "\u0120volunt": 9568, "352": 9569, "\u0120vienna": 9570, "nahm": 9571, "r\u00c3\u00a4ume": 9572, "\u0120beinhaltet": 9573, "zneim": 9574, "\u0120competence": 9575, "\u0120h\u00c3\u00b6chste": 9576, "\u0120sauber": 9577, "500": 9578, "worfen": 9579, "\u0120valu": 9580, "\u0120messe": 9581, "\u0120marken": 9582, "\u00c3\u00bcnfte": 9583, "\u0120judicial": 9584, "\u0120accessible": 9585, "\u0120max": 9586, "\u0120guaranteed": 9587, "\u0120mittelpunkt": 9588, "\u0120beabsicht": 9589, "termine": 9590, "\u0120zugriff": 9591, "\u0120fourth": 9592, "parte": 9593, "vier": 9594, "\u0120derartige": 9595, "\u0120output": 9596, "\u0120qualifiz": 9597, "gelassen": 9598, "iny": 9599, "\u0120zuges": 9600, "zeg": 9601, "\u0120k\u00c3\u00bcnftige": 9602, "\u00c3\u00b6konom": 9603, "\u0120mittels": 9604, "\u0120stamm": 9605, "\u0120statistics": 9606, "\u0120entreprene": 9607, "\u0120ge\u00c3\u00b6ff": 9608, "\u0120authent": 9609, "\u0120holidays": 9610, "\u0120vorschlagen": 9611, "\u0120assets": 9612, "\u0120tennis": 9613, "\u0120flow": 9614, "orgungs": 9615, "produktion": 9616, "\u00c3\u00a4hlten": 9617, "\u0120anre": 9618, "\u0120worten": 9619, "staatlichen": 9620, "selben": 9621, "\u0120chain": 9622, "\u0120distin": 9623, "\u0120santa": 9624, "ampagne": 9625, "\u00c3\u00a4ndische": 9626, "\u0120aviation": 9627, "tein": 9628, "\u0120ents": 9629, "\u0120offic": 9630, "\u0120bem\u00c3\u00bchen": 9631, "\u0120verantwortungs": 9632, "\u0120surrounding": 9633, "\u0120officials": 9634, "\u0120vollst\u00c3\u00a4ndige": 9635, "rem": 9636, "\u0120verfassungs": 9637, "\u0120unacceptable": 9638, "zig": 9639, "wald": 9640, "verse": 9641, "\u0120gerichte": 9642, "\u0120garantieren": 9643, "\u0120wet": 9644, "\u0120anerkannt": 9645, "\u0120metro": 9646, "\u0120fat": 9647, "\u0120relatively": 9648, "\u0120ice": 9649, "door": 9650, "\u0120einbeziehung": 9651, "\u0120conclude": 9652, "\u0120classic": 9653, "uty": 9654, "\u0120identity": 9655, "\u0120r\u00c3\u00bc": 9656, "\u0120breite": 9657, "istisch": 9658, "\u0120decades": 9659, "\u0120wald": 9660, "zb": 9661, "\u0120h\u00c3\u00b6here": 9662, "\u0120extreme": 9663, "\u0120absen": 9664, "emissionen": 9665, "spap": 9666, "\u0120ehemaligen": 9667, "\u0120betreffend": 9668, "\u0120entspannen": 9669, "\u0120wander": 9670, "\u0120sorgf\u00c3\u00a4lt": 9671, "\u0120cant": 9672, "\u0120recognised": 9673, "\u0120zust\u00c3\u00a4ndige": 9674, "\u0120beam": 9675, "\u0120primarily": 9676, "i\u00c3\u0141en": 9677, "rance": 9678, "\u0120respective": 9679, "\u0120beschreibung": 9680, "\u0120illustr": 9681, "\u0120verbesserungen": 9682, "\u0120ereignisse": 9683, "\u0120prodi": 9684, "\u0120nahen": 9685, "vereinbar": 9686, "\u0120fashion": 9687, "\u0120schneller": 9688, "\u0120\u00c3\u00bcbergangs": 9689, "\u0120wodurch": 9690, "\u0120anony": 9691, "\u0120prison": 9692, "\u0120cha": 9693, "\u0120consists": 9694, "\u0120besitzt": 9695, "uing": 9696, "\u0120kroatien": 9697, "\u0120zunehmend": 9698, "\u0120kombin": 9699, "\u0120dubl": 9700, "atever": 9701, "\u0120saw": 9702, "\u00c3\u00bccke": 9703, "\u0120telekommun": 9704, "\u0120berichten": 9705, "\u0120selten": 9706, "\u0120gehalten": 9707, "verbind": 9708, "\u0120sehensw\u00c3\u00bcrd": 9709, "\u0120elected": 9710, "care": 9711, "uters": 9712, "\u0120dach": 9713, "\u0120passed": 9714, "\u0120aer": 9715, "look": 9716, "\u0120warten": 9717, "\u0120sektoren": 9718, "\u0120sichern": 9719, "97": 9720, "inning": 9721, "\u0120jugoslaw": 9722, "\u0120starken": 9723, "\u0120yesterday": 9724, "lined": 9725, "\u0120lith": 9726, "\u0120whatever": 9727, "\u0120mi": 9728, "\u0120aussicht": 9729, "vant": 9730, "\u0120liberalisation": 9731, "\u0120facility": 9732, "itar": 9733, "\u0120library": 9734, "\u0120inspir": 9735, "\u0120wissens": 9736, "\u0120mys": 9737, "\u0120amongst": 9738, "\u0120hoffnung": 9739, "\u0120jahrhunderts": 9740, "\u0120gr\u00c3\u00b6\u00c3\u0141e": 9741, "\u0120taxes": 9742, "\u0120bereitgestellt": 9743, "ipe": 9744, "\u0120slight": 9745, "\u0120unternehmer": 9746, "\u0120england": 9747, "\u0120heads": 9748, "\u0120gegebenen": 9749, "\u0120beginnt": 9750, "\u0120visual": 9751, "\u0120spanischen": 9752, "\u0120zusch": 9753, "oted": 9754, "\u0120finanziert": 9755, "bi": 9756, "kul": 9757, "\u0120prest": 9758, "\u0120entertainment": 9759, "\u0120),": 9760, "fest": 9761, "\u0120kurzem": 9762, "\u0120kranken": 9763, "bran": 9764, "\u0120echte": 9765, "\u0120unterst\u00c3\u00bctze": 9766, "\u0120intelligen": 9767, "\u0120installed": 9768, "ieties": 9769, "\u0120250": 9770, "\u0120gestern": 9771, "\u0120destroy": 9772, "\u0120jack": 9773, "okraten": 9774, "\u0120f\u00c3\u00bchrung": 9775, "\u0120unanim": 9776, "with": 9777, "esc": 9778, "stattung": 9779, "\u0120hervorge": 9780, "zul": 9781, "\u0120dele": 9782, "\u0120pointed": 9783, "\u0120zus\u00c3\u00a4tzlichen": 9784, "\u0120intellectual": 9785, "national": 9786, "ando": 9787, "hann": 9788, "\u0120wed": 9789, "\u0120acquisition": 9790, "\u0120heating": 9791, "\u0120causes": 9792, "\u0120indones": 9793, "eller": 9794, "\u0120verst\u00c3\u00a4rken": 9795, "inks": 9796, "\u0120verschle": 9797, "\u0120universit\u00c3\u00a4t": 9798, "uers": 9799, "sprach": 9800, "\u0120nunmehr": 9801, "\u00c3\u00b6se": 9802, "dok": 9803, "\u0120vertr\u00c3\u00a4ge": 9804, "oke": 9805, "\u0120attacks": 9806, "\u0120exklus": 9807, "\u0120ermut": 9808, "\u0120speziellen": 9809, "\u0120asking": 9810, "\u0120finland": 9811, "\u012034": 9812, "mill": 9813, "\u0120referendum": 9814,
[...]
